{
  "version": "1.0",
  "truncation": null,
  "padding": {
    "strategy": "BatchLongest",
    "direction": "Right",
    "pad_to_multiple_of": null,
    "pad_id": 2,
    "pad_type_id": 0,
    "pad_token": "<|PAD|>"
  },
  "added_tokens": [
    {
      "id": 0,
      "content": "<|S|>",
      "single_word": false,
      "lstrip": false,
      "rstrip": false,
      "normalized": false,
      "special": true
    },
    {
      "id": 1,
      "content": "<|E|>",
      "single_word": false,
      "lstrip": false,
      "rstrip": false,
      "normalized": false,
      "special": true
    },
    {
      "id": 2,
      "content": "<|PAD|>",
      "single_word": false,
      "lstrip": false,
      "rstrip": false,
      "normalized": false,
      "special": true
    }
  ],
  "normalizer": {
    "type": "NFC"
  },
  "pre_tokenizer": {
    "type": "ByteLevel",
    "add_prefix_space": false,
    "trim_offsets": true,
    "use_regex": true
  },
  "post_processor": {
    "type": "ByteLevel",
    "add_prefix_space": true,
    "trim_offsets": true,
    "use_regex": true
  },
  "decoder": {
    "type": "ByteLevel",
    "add_prefix_space": true,
    "trim_offsets": true,
    "use_regex": true
  },
  "model": {
    "type": "BPE",
    "dropout": null,
    "unk_token": null,
    "continuing_subword_prefix": null,
    "end_of_word_suffix": null,
    "fuse_unk": false,
    "byte_fallback": false,
    "ignore_merges": false,
    "vocab": {
      "<|S|>": 0,
      "<|E|>": 1,
      "<|PAD|>": 2,
      "!": 3,
      "\"": 4,
      "'": 5,
      "(": 6,
      ")": 7,
      ",": 8,
      "-": 9,
      ".": 10,
      "1": 11,
      "2": 12,
      "3": 13,
      "4": 14,
      "5": 15,
      "6": 16,
      ":": 17,
      ";": 18,
      "<": 19,
      ">": 20,
      "?": 21,
      "A": 22,
      "B": 23,
      "C": 24,
      "D": 25,
      "E": 26,
      "F": 27,
      "G": 28,
      "H": 29,
      "I": 30,
      "J": 31,
      "K": 32,
      "L": 33,
      "M": 34,
      "N": 35,
      "O": 36,
      "P": 37,
      "Q": 38,
      "R": 39,
      "S": 40,
      "T": 41,
      "U": 42,
      "V": 43,
      "W": 44,
      "X": 45,
      "Y": 46,
      "Z": 47,
      "a": 48,
      "b": 49,
      "c": 50,
      "d": 51,
      "e": 52,
      "f": 53,
      "g": 54,
      "h": 55,
      "i": 56,
      "j": 57,
      "k": 58,
      "l": 59,
      "m": 60,
      "n": 61,
      "o": 62,
      "p": 63,
      "q": 64,
      "r": 65,
      "s": 66,
      "t": 67,
      "u": 68,
      "v": 69,
      "w": 70,
      "x": 71,
      "y": 72,
      "z": 73,
      "|": 74,
      "¤": 75,
      "¶": 76,
      "¼": 77,
      "Ã": 78,
      "â": 79,
      "Ċ": 80,
      "Ġ": 81,
      "Ģ": 82,
      "Ħ": 83,
      "Ķ": 84,
      "ĸ": 85,
      "Ļ": 86,
      "ľ": 87,
      "Ŀ": 88,
      "Ł": 89,
      "ch": 90,
      "en": 91,
      "er": 92,
      "Ġd": 93,
      "ei": 94,
      "Ġs": 95,
      "ie": 96,
      "ich": 97,
      "nd": 98,
      "st": 99,
      "<|": 100,
      "|>": 101,
      "Ġw": 102,
      "ein": 103,
      "es": 104,
      "Ġm": 105,
      "Ġa": 106,
      "Ã¼": 107,
      "Ġi": 108,
      "Ġg": 109,
      "Ġu": 110,
      "el": 111,
      "Ġn": 112,
      "Ġh": 113,
      "Ã¤": 114,
      "as": 115,
      "ĠS": 116,
      "an": 117,
      "ll": 118,
      "in": 119,
      "Ġz": 120,
      "ÃŁ": 121,
      "Ġv": 122,
      "ir": 123,
      "Ġb": 124,
      "ĠG": 125,
      "hr": 126,
      "au": 127,
      "te": 128,
      "gen": 129,
      "em": 130,
      "Ã¶": 131,
      "icht": 132,
      "Ġdie": 133,
      "Ġund": 134,
      "Ġzu": 135,
      "Ġf": 136,
      "ge": 137,
      "Ġder": 138,
      "Ġich": 139,
      "ten": 140,
      "ĠH": 141,
      "Ġsch": 142,
      "ar": 143,
      "Ġein": 144,
      "or": 145,
      "it": 146,
      "ĠW": 147,
      "eu": 148,
      "sch": 149,
      "on": 150,
      "et": 151,
      "Ġer": 152,
      "Ġnicht": 153,
      "Ġl": 154,
      "ĠF": 155,
      "ĠB": 156,
      "ck": 157,
      "Ġk": 158,
      "ig": 159,
      "cht": 160,
      "mm": 161,
      "ur": 162,
      "Ġau": 163,
      "hn": 164,
      "un": 165,
      "ĠM": 166,
      "Und": 167,
      "ĠT": 168,
      "PH": 169,
      "ben": 170,
      "ter": 171,
      "ĠK": 172,
      "ĠSch": 173,
      "och": 174,
      "ĠL": 175,
      "Ġver": 176,
      "ST": 177,
      "al": 178,
      "Ġsich": 179,
      "lich": 180,
      "Ġist": 181,
      "Ġge": 182,
      "Ġden": 183,
      "Ġun": 184,
      "re": 185,
      "Ġso": 186,
      "Ġsie": 187,
      "der": 188,
      "Ġin": 189,
      "Ġdas": 190,
      "ĠE": 191,
      "at": 192,
      "sen": 193,
      "Ġt": 194,
      "den": 195,
      "ft": 196,
      "rei": 197,
      "Ġdu": 198,
      "hl": 199,
      "gt": 200,
      "Die": 201,
      "ĠĠ": 202,
      "enn": 203,
      "Ġes": 204,
      "ind": 205,
      "ĠR": 206,
      "ĠA": 207,
      "ern": 208,
      "aÃŁ": 209,
      "LE": 210,
      "chen": 211,
      "Ġmich": 212,
      "ier": 213,
      "Ġmir": 214,
      "Ġwir": 215,
      "ann": 216,
      "and": 217,
      "Ġan": 218,
      "eh": 219,
      "ĠP": 220,
      "ber": 221,
      "Ġwie": 222,
      "Ã¼r": 223,
      "ra": 224,
      "Ġauf": 225,
      "Ġall": 226,
      "Der": 227,
      "lei": 228,
      "Ġdem": 229,
      "ME": 230,
      "ro": 231,
      "Ġuns": 232,
      "Ġihr": 233,
      "ELE": 234,
      "Ã¶n": 235,
      "'s": 236,
      "de": 237,
      "ut": 238,
      "Ġmit": 239,
      "IST": 240,
      "eit": 241,
      "Ġj": 242,
      "ol": 243,
      "Ich": 244,
      "ach": 245,
      "ĠD": 246,
      "OPH": 247,
      "rau": 248,
      "PHIST": 249,
      "ELES": 250,
      "OPHELES": 251,
      "PHISTOPHELES": 252,
      "Ġst": 253,
      "MEPHISTOPHELES": 254,
      "ru": 255,
      "ĠN": 256,
      "ĠV": 257,
      "est": 258,
      "ER": 259,
      "Ġmein": 260,
      "Das": 261,
      "âĢ": 262,
      "ĠZ": 263,
      "ĠSt": 264,
      "esch": 265,
      "ill": 266,
      "Ġwo": 267,
      "nen": 268,
      "Ã¼ck": 269,
      "ehr": 270,
      "Ġvon": 271,
      "bt": 272,
      "AU": 273,
      "le": 274,
      "Ġsein": 275,
      "So": 276,
      "Er": 277,
      "zen": 278,
      "ag": 279,
      "Ġher": 280,
      "AUST": 281,
      "Ġbe": 282,
      "FAUST": 283,
      "elt": 284,
      "ung": 285,
      "igen": 286,
      "Ã¤n": 287,
      "pf": 288,
      "uch": 289,
      "ĠHer": 290,
      "omm": 291,
      "um": 292,
      "eil": 293,
      "ort": 294,
      "reu": 295,
      "und": 296,
      "end": 297,
      "Ġal": 298,
      "be": 299,
      "Ġdein": 300,
      "Ġim": 301,
      "ht": 302,
      "isch": 303,
      "Ġdich": 304,
      "Ein": 305,
      "âĢĻ": 306,
      "ĠGe": 307,
      "sten": 308,
      "--": 309,
      "Ġnur": 310,
      "eben": 311,
      "se": 312,
      "Ġwas": 313,
      "Ġdir": 314,
      "Ġum": 315,
      "ick": 316,
      "Ġha": 317,
      "Wie": 318,
      "is": 319,
      "ĠĠĠĠ": 320,
      "ff": 321,
      "ent": 322,
      "Ġhin": 323,
      "Doch": 324,
      "zt": 325,
      "Ġdes": 326,
      "In": 327,
      "ste": 328,
      "ph": 329,
      "Ġman": 330,
      "il": 331,
      "Ġdoch": 332,
      "tet": 333,
      "Was": 334,
      "am": 335,
      "ne": 336,
      "uÃŁ": 337,
      "hm": 338,
      "imm": 339,
      "Ġvor": 340,
      "ahr": 341,
      "oll": 342,
      "rÃ¼": 343,
      "euch": 344,
      "Ġauch": 345,
      "urch": 346,
      "Ver": 347,
      "Sie": 348,
      "Ã¶r": 349,
      "acht": 350,
      "ell": 351,
      "Ġaus": 352,
      "CH": 353,
      "iel": 354,
      "rin": 355,
      "Ġwar": 356,
      "ang": 357,
      "Ã¤r": 358,
      "Ihr": 359,
      "Un": 360,
      "Ã¼ber": 361,
      "Mit": 362,
      "Ġo": 363,
      "leich": 364,
      "la": 365,
      "Ġsind": 366,
      "eg": 367,
      "Ġschw": 368,
      "AR": 369,
      "Du": 370,
      "Ġwei": 371,
      "hen": 372,
      "rÃ¤": 373,
      "uf": 374,
      "ert": 375,
      "Sch": 376,
      "Ġhier": 377,
      "rie": 378,
      "Ġent": 379,
      "Ġda": 380,
      "eist": 381,
      "nt": 382,
      "Ġihn": 383,
      "bst": 384,
      "Es": 385,
      "ist": 386,
      "Ġsp": 387,
      "Ġdies": 388,
      "ĠEr": 389,
      "ĠO": 390,
      "Ġwohl": 391,
      "anz": 392,
      "us": 393,
      "Ã¤t": 394,
      "lie": 395,
      "ĠJ": 396,
      "her": 397,
      "os": 398,
      "kt": 399,
      "OR": 400,
      "ot": 401,
      "Ġschon": 402,
      "ĠBl": 403,
      "Ġnoch": 404,
      "Ġje": 405,
      "ÃŁen": 406,
      "Da": 407,
      "EN": 408,
      "Ġlie": 409,
      "Ġeuch": 410,
      "Ġsel": 411,
      "Ġsoll": 412,
      "Den": 413,
      "zu": 414,
      "Ġals": 415,
      "wei": 416,
      "Ġwird": 417,
      "Ġre": 418,
      "ÃŁt": 419,
      "aus": 420,
      "Ġr": 421,
      "om": 422,
      "Ã¼n": 423,
      "Ġnach": 424,
      "Ġzum": 425,
      "ĠÃ¼ber": 426,
      "Ġdurch": 427,
      "Ġgew": 428,
      "ken": 429,
      "he": 430,
      "gel": 431,
      "Ġzur": 432,
      "Ġwill": 433,
      "all": 434,
      "Ġsei": 435,
      "ĠGl": 436,
      "Ġihm": 437,
      "Ġnun": 438,
      "itt": 439,
      "Ġhat": 440,
      "mmer": 441,
      "Ġe": 442,
      "Ã¶t": 443,
      "Wenn": 444,
      "ĠfÃ¼r": 445,
      "Ġkomm": 446,
      "lÃ¼": 447,
      "Ġnie": 448,
      "ehn": 449,
      "ensch": 450,
      "ige": 451,
      "pp": 452,
      "Wir": 453,
      "eln": 454,
      "Von": 455,
      "ug": 456,
      "Ã¼hl": 457,
      "ĠschÃ¶n": 458,
      "ĠHerr": 459,
      "Iph": 460,
      "Iphigen": 461,
      "ĠdaÃŁ": 462,
      "Ġkein": 463,
      "ĠVer": 464,
      "Ġselbst": 465,
      "ab": 466,
      "Ġ(": 467,
      "Ġsa": 468,
      "Iphigenie": 469,
      "ĠLeben": 470,
      "ĠAu": 471,
      "heit": 472,
      "Ist": 473,
      "che": 474,
      "ing": 475,
      "alt": 476,
      "fen": 477,
      "Ã¼hr": 478,
      "Ġste": 479,
      "Ġho": 480,
      "ĠMann": 481,
      "des": 482,
      "Ġbei": 483,
      "ĠGeist": 484,
      "ĠLie": 485,
      "inn": 486,
      "Ġlei": 487,
      ").": 488,
      "Ġkl": 489,
      "chte": 490,
      "Ġwenn": 491,
      "Ġgro": 492,
      "Wo": 493,
      "ĠSchw": 494,
      "ner": 495,
      "Ġkann": 496,
      "mal": 497,
      "Ġgen": 498,
      "Al": 499,
      "Ġand": 500,
      "ĠSp": 501,
      "ĠPf": 502,
      "ien": 503,
      "ul": 504,
      "MAR": 505,
      "Ġp": 506,
      "ĠUn": 507,
      "Ġgleich": 508,
      "Ġbin": 509,
      "aft": 510,
      "ster": 511,
      "ĠmuÃŁ": 512,
      "tern": 513,
      ".)": 514,
      "Ġam": 515,
      "Ġeine": 516,
      "Ã¶nig": 517,
      "Des": 518,
      "ren": 519,
      "ers": 520,
      "Ã¼t": 521,
      "etzt": 522,
      "Ġdenn": 523,
      "Ġwieder": 524,
      "DaÃŁ": 525,
      "lau": 526,
      "bar": 527,
      "TE": 528,
      "Ġviel": 529,
      "ĠWei": 530,
      "ohn": 531,
      "Als": 532,
      "Ġgesch": 533,
      "ĠGÃ¶t": 534,
      "ĠFreu": 535,
      "ger": 536,
      "ritt": 537,
      "Ġseh": 538,
      "Ã¤l": 539,
      "ĠKÃ¶nig": 540,
      "Denn": 541,
      "Ġwer": 542,
      "Ã¤nd": 543,
      "ĠMensch": 544,
      "ĠĠĠĠĠĠĠĠ": 545,
      "Wer": 546,
      "Ġges": 547,
      "ĠWelt": 548,
      "ĠBru": 549,
      "Nun": 550,
      "ges": 551,
      "ĠGes": 552,
      "Ġgeb": 553,
      "Ġalles": 554,
      "Zu": 555,
      "dig": 556,
      "Dem": 557,
      "Nicht": 558,
      "eer": 559,
      "ke": 560,
      "rÃ¤n": 561,
      "ust": 562,
      "war": 563,
      "Ġganz": 564,
      "men": 565,
      "ĠIhr": 566,
      "Ġimmer": 567,
      "Ġnichts": 568,
      "fel": 569,
      "Auf": 570,
      "Ġneu": 571,
      "ĠGesch": 572,
      "Ġeinen": 573,
      "ĠEuch": 574,
      "angen": 575,
      "etz": 576,
      "ckt": 577,
      "Ġab": 578,
      "ĠSe": 579,
      "Ge": 580,
      "ief": 581,
      "elle": 582,
      "get": 583,
      "ĠFl": 584,
      "ald": 585,
      "Im": 586,
      "US": 587,
      "Ġalle": 588,
      "old": 589,
      "ffen": 590,
      "Ġgar": 591,
      "aum": 592,
      "Ġfr": 593,
      "aÃŁt": 594,
      "ĠGew": 595,
      "ser": 596,
      "cken": 597,
      "ott": 598,
      "amm": 599,
      "ze": 600,
      "Ġrei": 601,
      "Ġvoll": 602,
      "Ġvom": 603,
      "ĠTo": 604,
      "Mein": 605,
      "ast": 606,
      "Ġmehr": 607,
      "assen": 608,
      "iÃŁ": 609,
      "sam": 610,
      "Ġbl": 611,
      "gend": 612,
      "ild": 613,
      "ĠHÃ¶": 614,
      "euer": 615,
      "ĠRei": 616,
      "bl": 617,
      "sp": 618,
      "Ġbist": 619,
      "alten": 620,
      "ĠAr": 621,
      "CHOR": 622,
      "gst": 623,
      "qu": 624,
      "auf": 625,
      "ĠgroÃŁ": 626,
      "sel": 627,
      "Ãľ": 628,
      "Ġsol": 629,
      "All": 630,
      "gl": 631,
      "nde": 632,
      "einen": 633,
      "ange": 634,
      "arf": 635,
      "Ġdieser": 636,
      "Ġheil": 637,
      "geb": 638,
      "ĠFel": 639,
      "Ġew": 640,
      "IS": 641,
      "agen": 642,
      "Ġget": 643,
      "ĠHau": 644,
      "ĠAugen": 645,
      "Ġmag": 646,
      "Ġgel": 647,
      "raft": 648,
      "Ġallen": 649,
      "..": 650,
      "eint": 651,
      "Ġgern": 652,
      "Ġhei": 653,
      "llt": 654,
      "Ġfort": 655,
      "ĠTag": 656,
      "ĠweiÃŁ": 657,
      "Hier": 658,
      "erk": 659,
      "Ġblei": 660,
      "Ġjen": 661,
      "Um": 662,
      "eine": 663,
      "Ġaber": 664,
      "Ġerst": 665,
      "atz": 666,
      "Ġber": 667,
      "ĠRe": 668,
      "ĠZeit": 669,
      "Nur": 670,
      "Ã¤cht": 671,
      "ĠHand": 672,
      "iger": 673,
      "ĠSchl": 674,
      "ĠSchm": 675,
      "Ġversch": 676,
      "Ġhaben": 677,
      "Ġrecht": 678,
      "ĠMenschen": 679,
      "AL": 680,
      "AN": 681,
      "ater": 682,
      "rer": 683,
      "ĠmÃ¶": 684,
      "elch": 685,
      "hlen": 686,
      "ĠNacht": 687,
      "Ġmeine": 688,
      "Ġhab": 689,
      "!--": 690,
      "An": 691,
      "ĠhÃ¶r": 692,
      "ĠMut": 693,
      "ĠhÃ¶": 694,
      "itz": 695,
      "Ġverl": 696,
      "ĠGlÃ¼ck": 697,
      "ETE": 698,
      "GAR": 699,
      "Ġschau": 700,
      "immel": 701,
      "MARGAR": 702,
      "MARGARETE": 703,
      "Dann": 704,
      "IE": 705,
      "RO": 706,
      "ho": 707,
      "ĠU": 708,
      "Ġgut": 709,
      "Ġfrei": 710,
      "ĠHaus": 711,
      "rest": 712,
      "ĠHerz": 713,
      "ad": 714,
      "ider": 715,
      "innen": 716,
      "ĠGott": 717,
      "gest": 718,
      "Ġeinem": 719,
      "ungen": 720,
      "Ġgef": 721,
      "mt": 722,
      "Ġwen": 723,
      "ausen": 724,
      "ĠWort": 725,
      "PHOR": 726,
      "ennen": 727,
      "Ġallein": 728,
      "ommen": 729,
      "Sich": 730,
      "ele": 731,
      "ank": 732,
      "Ġzie": 733,
      "ĠTeu": 734,
      "NA": 735,
      "SCH": 736,
      "TH": 737,
      "Ġins": 738,
      "Ġei": 739,
      "Ġdort": 740,
      "Ġfind": 741,
      "ĠfÃ¼hl": 742,
      "ĠFrau": 743,
      "ĠBu": 744,
      "ĠGef": 745,
      "Ġhast": 746,
      "ellen": 747,
      "AS": 748,
      "Ġru": 749,
      "cher": 750,
      "chten": 751,
      "ĠBlick": 752,
      "Ġkommt": 753,
      "ĠTeufel": 754,
      "EI": 755,
      "age": 756,
      "fl": 757,
      "gleich": 758,
      "rt": 759,
      "we": 760,
      "Ġbes": 761,
      "ĠVater": 762,
      "âĢĶ": 763,
      "ringt": 764,
      "lamm": 765,
      "Auch": 766,
      "Durch": 767,
      "geben": 768,
      "liche": 769,
      "under": 770,
      "Ġdeine": 771,
      "gesch": 772,
      "ver": 773,
      "Ġna": 774,
      "Ġeiner": 775,
      "hne": 776,
      "Ġunter": 777,
      "Ġtief": 778,
      "Ġaller": 779,
      "Ġstill": 780,
      "ischen": 781,
      "ĠzurÃ¼ck": 782,
      "Be": 783,
      "bel": 784,
      "keit": 785,
      "llen": 786,
      "gew": 787,
      "Ġschn": 788,
      "Ġgeh": 789,
      "unden": 790,
      "ĠLieb": 791,
      "St": 792,
      "ĠwÃ¤r": 793,
      "Ã¤hr": 794,
      "ĠLei": 795,
      "racht": 796,
      "Ġjeder": 797,
      "blick": 798,
      "Aus": 799,
      "fe": 800,
      "fft": 801,
      "uft": 802,
      "eigt": 803,
      "Ġsehn": 804,
      "schaft": 805,
      "Ġlang": 806,
      "ĠKl": 807,
      "lichen": 808,
      "ĠGÃ¶tter": 809,
      "Mir": 810,
      "Vor": 811,
      "aust": 812,
      "eut": 813,
      "ĠBrust": 814,
      "Ent": 815,
      "KA": 816,
      "pt": 817,
      "ri": 818,
      "Ã¼ÃŁ": 819,
      "Ġfro": 820,
      "ĠHimmel": 821,
      "Ġschl": 822,
      "igt": 823,
      "rÃ¶": 824,
      "voll": 825,
      "Ã¼nd": 826,
      "ĠSinn": 827,
      "Ġbest": 828,
      "Ġmeinen": 829,
      "ĠJahr": 830,
      "GE": 831,
      "dem": 832,
      "Ġdiesen": 833,
      "art": 834,
      "ĠBo": 835,
      "unst": 836,
      "Ġverw": 837,
      "ragen": 838,
      "olk": 839,
      "Ã¤lt": 840,
      "ISER": 841,
      "Ach": 842,
      "Nach": 843,
      "aden": 844,
      "Ġbet": 845,
      "Ġeinmal": 846,
      "ĠKind": 847,
      "ehrt": 848,
      "Ġdeinen": 849,
      "KAISER": 850,
      "Man": 851,
      "hin": 852,
      "esen": 853,
      "test": 854,
      "Ġfest": 855,
      "onst": 856,
      "hnen": 857,
      "ehen": 858,
      "Ġmeinem": 859,
      "Ġseiner": 860,
      "Ġherr": 861,
      "ĠHerzen": 862,
      "issen": 863,
      "KY": 864,
      "yla": 865,
      "ĠfÃ¼hr": 866,
      "ĠFeuer": 867,
      "ĠKraft": 868,
      "ĠRu": 869,
      "ĠPl": 870,
      "ehren": 871,
      "Schon": 872,
      "ĠSeele": 873,
      "PHORKY": 874,
      "ylades": 875,
      "BE": 876,
      "FÃ¼r": 877,
      "del": 878,
      "kl": 879,
      "eiten": 880,
      "ĠLand": 881,
      "Ġverb": 882,
      "atur": 883,
      "ĠAl": 884,
      "eht": 885,
      "Ã¼ckt": 886,
      "Ã¼cken": 887,
      "Ġalten": 888,
      "Ġandern": 889,
      "Mich": 890,
      "Orest": 891,
      "bei": 892,
      "fte": 893,
      "Ġeu": 894,
      "Ġdr": 895,
      "lle": 896,
      "ingen": 897,
      "Ġdiese": 898,
      "Ġschm": 899,
      "att": 900,
      "ennt": 901,
      "ĠAn": 902,
      "Uns": 903,
      ".--": 904,
      "Zum": 905,
      "ebt": 906,
      "ucht": 907,
      "Ġerf": 908,
      "ĠlÃ¤": 909,
      "ĠlaÃŁ": 910,
      "Ġmeiner": 911,
      "Ġdiesem": 912,
      "Qu": 913,
      "Vom": 914,
      "glich": 915,
      "wind": 916,
      "Ġem": 917,
      "eim": 918,
      "Ġgi": 919,
      "Ġger": 920,
      "ĠSie": 921,
      "tend": 922,
      "ĠHo": 923,
      "ĠHel": 924,
      "Ġscheint": 925,
      "ĠTh": 926,
      "ĠEin": 927,
      "hlt": 928,
      "ieren": 929,
      "Ã¤rt": 930,
      "ĠMutter": 931,
      "ausend": 932,
      "HELE": 933,
      "rich": 934,
      "ĠwÃ¤": 935,
      "Ġgl": 936,
      "Ġfreu": 937,
      "ĠBer": 938,
      "ĠMeer": 939,
      "Ġvert": 940,
      "Ġgeht": 941,
      "ĠBlut": 942,
      "Ġsteht": 943,
      "ĠHaupt": 944,
      "hoas": 945,
      "HELENA": 946,
      "LaÃŁ": 947,
      "achen": 948,
      "det": 949,
      "richt": 950,
      "Ġzer": 951,
      "Ġbesch": 952,
      "ĠGru": 953,
      "oren": 954,
      "onne": 955,
      "ĠBe": 956,
      "annt": 957,
      "Ġunser": 958,
      "Ġseinen": 959,
      "ĠGeb": 960,
      "ellt": 961,
      "ĠErde": 962,
      "ĠTod": 963,
      "Ġgetan": 964,
      "PHORKYAS": 965,
      "IN": 966,
      "NER": 967,
      "gn": 968,
      "haft": 969,
      "ogen": 970,
      "ingt": 971,
      "schl": 972,
      "schen": 973,
      "ĠkÃ¶n": 974,
      "ĠLust": 975,
      "lecht": 976,
      "ĠFreund": 977,
      "Hat": 978,
      "aben": 979,
      "hst": 980,
      "oÃŁ": 981,
      "Ġdarf": 982,
      "Ġgu": 983,
      "Ã¤um": 984,
      "Ġbald": 985,
      "orgen": 986,
      "reis": 987,
      "Ġschwer": 988,
      "Ġlieb": 989,
      "Ġras": 990,
      "Ġleicht": 991,
      "Her": 992,
      "weg": 993,
      "Ġdann": 994,
      "ĠWas": 995,
      "ĠKa": 996,
      "ĠSchÃ¶n": 997,
      "iert": 998,
      "Ġheran": 999,
      "Ġseid": 1000,
      "Ġnieder": 1001,
      "Ġsagen": 1002,
      "ĠBusen": 1003,
      "dl": 1004,
      "licht": 1005,
      "me": 1006,
      "opf": 1007,
      "res": 1008,
      "Ġflie": 1009,
      "scht": 1010,
      "Ġersch": 1011,
      "ĠFlamm": 1012,
      "ftig": 1013,
      "leichen": 1014,
      "ĠVolk": 1015,
      "Ġseine": 1016,
      "Ġdeiner": 1017,
      "ĠBruder": 1018,
      "Komm": 1019,
      "Pylades": 1020,
      "Sind": 1021,
      "Thoas": 1022,
      "War": 1023,
      "aten": 1024,
      "affen": 1025,
      "rem": 1026,
      "ret": 1027,
      "ssen": 1028,
      "ĠIn": 1029,
      "Ġweit": 1030,
      "Ġglau": 1031,
      "Ġhal": 1032,
      "eute": 1033,
      "Ġletz": 1034,
      "ĠkÃ¼": 1035,
      "Ġja": 1036,
      "Ġbeg": 1037,
      "Ġkommen": 1038,
      "ĠHerrn": 1039,
      "Ja": 1040,
      "MU": 1041,
      "Sei": 1042,
      "ack": 1043,
      "ÃĦ": 1044,
      "enden": 1045,
      "Ġgehn": 1046,
      "Ġihren": 1047,
      "Ã¤ngst": 1048,
      "Ġdeinem": 1049,
      "ĠLebens": 1050,
      "Ġbleibt": 1051,
      "Ar": 1052,
      "vor": 1053,
      "ĠGest": 1054,
      "licher": 1055,
      "ische": 1056,
      "ĠFelsen": 1057,
      "TER": 1058,
      "dr": 1059,
      "mpf": 1060,
      "ĠQu": 1061,
      "Ġsehr": 1062,
      "ĠwÃ¼r": 1063,
      "Ġbrau": 1064,
      "geh": 1065,
      "ĠHe": 1066,
      "Ġleben": 1067,
      "Ġlange": 1068,
      "dern": 1069,
      "unde": 1070,
      "endet": 1071,
      "Ã¶rt": 1072,
      "ahn": 1073,
      "pft": 1074,
      "ugend": 1075,
      "erz": 1076,
      "Ġgrau": 1077,
      "Ã¤d": 1078,
      "Ã¤u": 1079,
      "Ã¶l": 1080,
      "ĠWo": 1081,
      "ĠLicht": 1082,
      "Ġjetzt": 1083,
      "illen": 1084,
      "ringen": 1085,
      "Ġohne": 1086,
      "Ġjedem": 1087,
      "ĠReich": 1088,
      "Am": 1089,
      "RE": 1090,
      "fer": 1091,
      "kas": 1092,
      "ond": 1093,
      "ĠI": 1094,
      "eicht": 1095,
      "Ã¼l": 1096,
      "Ġhol": 1097,
      "Ġbis": 1098,
      "Ġle": 1099,
      "Ġlo": 1100,
      "anden": 1101,
      "ĠNatur": 1102,
      "ĠVor": 1103,
      "Ġgenug": 1104,
      "uld": 1105,
      "ĠhÃ¶ch": 1106,
      "Ġschnell": 1107,
      "Ġgibt": 1108,
      "ON": 1109,
      "gem": 1110,
      "kommen": 1111,
      "pen": 1112,
      "eiden": 1113,
      "Ġmacht": 1114,
      "Ã¤ch": 1115,
      "ant": 1116,
      "ett": 1117,
      "ĠFei": 1118,
      "Ġvers": 1119,
      "ĠEl": 1120,
      "atten": 1121,
      "Ġseinem": 1122,
      "Ġbef": 1123,
      "Ġliegt": 1124,
      "...": 1125,
      "THE": 1126,
      "Noch": 1127,
      "aar": 1128,
      "gnen": 1129,
      "ĠC": 1130,
      "stern": 1131,
      "ĠgrÃ¼": 1132,
      "anzen": 1133,
      "anken": 1134,
      "Ġbeh": 1135,
      "aut": 1136,
      "itter": 1137,
      "ĠKn": 1138,
      "Ġverd": 1139,
      "Ġtre": 1140,
      "Ġunsre": 1141,
      "ilde": 1142,
      "ĠOhr": 1143,
      "ossen": 1144,
      "ĠgroÃŁen": 1145,
      "MARTHE": 1146,
      "Allein": 1147,
      "Ġewig": 1148,
      "nung": 1149,
      "Ġeben": 1150,
      "Ġdar": 1151,
      "eite": 1152,
      "Ġnimm": 1153,
      "ĠhÃ¤t": 1154,
      "ĠSohn": 1155,
      "Ġzwei": 1156,
      "hron": 1157,
      "tem": 1158,
      "Ã¶hn": 1159,
      "ĠHeil": 1160,
      "orte": 1161,
      "sche": 1162,
      "Ġsieht": 1163,
      "Ġstar": 1164,
      "Ġbege": 1165,
      "Ġoder": 1166,
      "lagen": 1167,
      "ĠOr": 1168,
      "Ġwenig": 1169,
      "AG": 1170,
      "DER": 1171,
      "DIE": 1172,
      "agt": 1173,
      "zei": 1174,
      "Ġwahr": 1175,
      "Ã¤ÃŁ": 1176,
      "Ġvie": 1177,
      "ĠGel": 1178,
      "gef": 1179,
      "Ġlos": 1180,
      "hle": 1181,
      "ĠZau": 1182,
      "Ġweiter": 1183,
      "Ġrein": 1184,
      "Ġhohen": 1185,
      "Ġganze": 1186,
      "tin": 1187,
      "Ġsonst": 1188,
      "Ġwelch": 1189,
      "ĠmÃ¼": 1190,
      "Ã¤llt": 1191,
      "ĠWunder": 1192,
      "ette": 1193,
      "Ġerg": 1194,
      "urz": 1195,
      "unk": 1196,
      "ĠMen": 1197,
      "ĠTage": 1198,
      "Ġtausend": 1199,
      "reif": 1200,
      "ĠDien": 1201,
      "rug": 1202,
      "ĠNach": 1203,
      "Ġbed": 1204,
      "Ġkeine": 1205,
      "ĠWeib": 1206,
      "Ġfrisch": 1207,
      "ĠlÃ¤ÃŁt": 1208,
      "Arkas": 1209,
      "ALE": 1210,
      "Dort": 1211,
      "Gesch": 1212,
      "Zur": 1213,
      "oph": 1214,
      "opp": 1215,
      "Ġro": 1216,
      "ieb": 1217,
      "Ġwider": 1218,
      "auch": 1219,
      "itzt": 1220,
      "etw": 1221,
      "Ġkaum": 1222,
      "dert": 1223,
      "ĠEnde": 1224,
      "inden": 1225,
      "ĠPh": 1226,
      "ĠSchwest": 1227,
      "ĠĠĠĠĠĠĠĠĠĠĠĠĠĠĠĠ": 1228,
      "Ġnah": 1229,
      "aff": 1230,
      "ech": 1231,
      "sal": 1232,
      "wahr": 1233,
      "Ġgold": 1234,
      "Ġbel": 1235,
      "auer": 1236,
      "Ġfern": 1237,
      "ĠWeg": 1238,
      "onnen": 1239,
      "ĠKr": 1240,
      "ĠSchritt": 1241,
      "Ġvern": 1242,
      "rechen": 1243,
      "reit": 1244,
      "Ġoft": 1245,
      "allen": 1246,
      "Ã¼hrt": 1247,
      "ĠBoden": 1248,
      "Bei": 1249,
      "Dich": 1250,
      "Dir": 1251,
      "HO": 1252,
      "Welch": 1253,
      "afft": 1254,
      "ipp": 1255,
      "net": 1256,
      "samm": 1257,
      "von": 1258,
      "ndes": 1259,
      "Ã¼ÃŁen": 1260,
      "ĠSter": 1261,
      "lleicht": 1262,
      "ĠWir": 1263,
      "Ġern": 1264,
      "ĠTrau": 1265,
      "Ġgest": 1266,
      "Ġihre": 1267,
      "rum": 1268,
      "pfer": 1269,
      "ĠGed": 1270,
      "ickt": 1271,
      "zusch": 1272,
      "ĠGeister": 1273,
      "Ġsolch": 1274,
      "ĠRecht": 1275,
      "ĠKais": 1276,
      "OL": 1277,
      "iff": 1278,
      "ĠÃ¼": 1279,
      "Ġrau": 1280,
      "Ġsag": 1281,
      "Ġweg": 1282,
      "Ġfe": 1283,
      "arten": 1284,
      "Ġeinz": 1285,
      "ĠWie": 1286,
      "Ġlau": 1287,
      "Ġverst": 1288,
      "Ġgegen": 1289,
      "Ġsogleich": 1290,
      "ĠEhr": 1291,
      "Ġtreu": 1292,
      "ĠĠĠ": 1293,
      "ĠNot": 1294,
      "Soll": 1295,
      "Ġentf": 1296,
      "ĠGÃ¶ttin": 1297,
      "ĠFreude": 1298,
      "rÃ¤ngt": 1299,
      "ĠGewalt": 1300,
      "ĠHex": 1301,
      "Dein": 1302,
      "LUS": 1303,
      "eph": 1304,
      "ften": 1305,
      "nte": 1306,
      "nis": 1307,
      "ock": 1308,
      "wÃ¤rt": 1309,
      "Ġdro": 1310,
      "Ġir": 1311,
      "Ġgem": 1312,
      "ÃŁe": 1313,
      "aub": 1314,
      "Ġfol": 1315,
      "Ġerh": 1316,
      "ĠFlÃ¼": 1317,
      "ĠTro": 1318,
      "Ġverk": 1319,
      "liches": 1320,
      "Ġged": 1321,
      "ĠEnt": 1322,
      "ĠtrÃ¤": 1323,
      "raut": 1324,
      "Ġhervor": 1325,
      "ĠJugend": 1326,
      "Ġedl": 1327,
      "Wird": 1328,
      "ĠschÃ¶nen": 1329,
      "Ãľber": 1330,
      "ĠZauber": 1331,
      "rat": 1332,
      "nden": 1333,
      "Ġar": 1334,
      "ĠSonne": 1335,
      "Ġfl": 1336,
      "gegen": 1337,
      "itzen": 1338,
      "Ġerw": 1339,
      "Ġersten": 1340,
      "ĠSchatz": 1341,
      "Ġverm": 1342,
      "ĠRat": 1343,
      "ĠDu": 1344,
      "Ã¤ngt": 1345,
      "Ġhinter": 1346,
      "Ġward": 1347,
      "Ġoben": 1348,
      "eister": 1349,
      "ĠGeschick": 1350,
      "Ã¤chtig": 1351,
      "ĠhÃ¶ren": 1352,
      "Ġempf": 1353,
      "LaÃŁt": 1354,
      "gleichen": 1355,
      "komm": 1356,
      "mand": 1357,
      "ĠDie": 1358,
      "Ġetw": 1359,
      "eich": 1360,
      "ieht": 1361,
      "ĠwÃ¼n": 1362,
      "Ã¼gen": 1363,
      "Ġgr": 1364,
      "ĠglÃ¼": 1365,
      "ĠhÃ¤lt": 1366,
      "ĠSeite": 1367,
      "ink": 1368,
      "onen": 1369,
      "Ġleuch": 1370,
      "ĠFaust": 1371,
      "ĠTal": 1372,
      "ĠKreis": 1373,
      "erne": 1374,
      "olz": 1375,
      "ache": 1376,
      "rauen": 1377,
      "Erst": 1378,
      "ahren": 1379,
      "Ġfrem": 1380,
      "Ġbereit": 1381,
      "ĠFrauen": 1382,
      "ĠPlatz": 1383,
      "ephist": 1384,
      "ND": 1385,
      "hig": 1386,
      "mp": 1387,
      "mut": 1388,
      "Ġeh": 1389,
      "Ġqu": 1390,
      "erl": 1391,
      "iegel": 1392,
      "ndlich": 1393,
      "eles": 1394,
      "ĠHeer": 1395,
      "etten": 1396,
      "ĠBild": 1397,
      "ĠKopf": 1398,
      "Ġverg": 1399,
      "LER": 1400,
      "ĠNe": 1401,
      "este": 1402,
      "stehn": 1403,
      "amit": 1404,
      "ĠgewiÃŁ": 1405,
      "Ġsagt": 1406,
      "ĠPflicht": 1407,
      "wart": 1408,
      "ĠAugenblick": 1409,
      "Ġjener": 1410,
      "Ġrasch": 1411,
      "ĠWasser": 1412,
      "ĠMenge": 1413,
      "opheles": 1414,
      "ephistopheles": 1415,
      "Aber": 1416,
      "Bin": 1417,
      "Ges": 1418,
      "Sp": 1419,
      "Will": 1420,
      "WAG": 1421,
      "Zwar": 1422,
      "eder": 1423,
      "wand": 1424,
      "stand": 1425,
      "Ġneh": 1426,
      "Ġhoch": 1427,
      "inne": 1428,
      "hrt": 1429,
      "ĠHa": 1430,
      "itte": 1431,
      "ĠBes": 1432,
      "ĠkrÃ¤": 1433,
      "chter": 1434,
      "unge": 1435,
      "ĠSchar": 1436,
      "altet": 1437,
      "reich": 1438,
      "pfen": 1439,
      "Ġalte": 1440,
      "Ġhabe": 1441,
      "tets": 1442,
      "amen": 1443,
      "ring": 1444,
      "Ġentz": 1445,
      "Ġstehn": 1446,
      "ĠUfer": 1447,
      "Ġherrlich": 1448,
      "sammen": 1449,
      "WAGNER": 1450,
      "CU": 1451,
      "NCU": 1452,
      "ahl": 1453,
      "mlich": 1454,
      "pel": 1455,
      "rig": 1456,
      "eig": 1457,
      "ieÃŁ": 1458,
      "Ġging": 1459,
      "asse": 1460,
      "Ġbringt": 1461,
      "ĠGold": 1462,
      "ĠfrÃ¼": 1463,
      "ĠHÃ¤nd": 1464,
      "Ġschlecht": 1465,
      "ĠWider": 1466,
      "ĠFuÃŁ": 1467,
      "urg": 1468,
      "urcht": 1469,
      "ĠMond": 1470,
      "ĠSchein": 1471,
      "reiten": 1472,
      "ĠRaum": 1473,
      "Ġwirst": 1474,
      "ĠPrie": 1475,
      "rach": 1476,
      "zend": 1477,
      "Ġbek": 1478,
      "Ġbewe": 1479,
      "ĠGegen": 1480,
      "Ġsah": 1481,
      "Ġhohe": 1482,
      "Ġandre": 1483,
      "ĠKÃ¶nigin": 1484,
      "Ġwerden": 1485,
      "Gew": 1486,
      "adt": 1487,
      "Ġeigen": 1488,
      "gebens": 1489,
      "Ġfromm": 1490,
      "ĠBerg": 1491,
      "ĠFlammen": 1492,
      "MUNCU": 1493,
      "Ã¤dchen": 1494,
      "HOMUNCU": 1495,
      "HOMUNCULUS": 1496,
      "ah": 1497,
      "Ġen": 1498,
      "Ġeil": 1499,
      "Ġend": 1500,
      "Ġstets": 1501,
      "Ġach": 1502,
      "ass": 1503,
      "Ġzw": 1504,
      "auern": 1505,
      "ichter": 1506,
      "ĠWorte": 1507,
      "schw": 1508,
      "ĠFÃ¼r": 1509,
      "ĠFrem": 1510,
      "ĠThron": 1511,
      "ĠLo": 1512,
      "Ġuner": 1513,
      "Ġihrer": 1514,
      "Ġjung": 1515,
      "Ġstand": 1516,
      "ĠZwei": 1517,
      "Ġherein": 1518,
      "Ġalt": 1519,
      "Ġumher": 1520,
      "ffnung": 1521,
      "Ġwillst": 1522,
      "Ġniemand": 1523,
      "ĠAuge": 1524,
      "ĠLiebe": 1525,
      "Ġgeschehn": 1526,
      "Ġschauen": 1527,
      "Ġletzten": 1528,
      "OLD": 1529,
      "ĠPriester": 1530,
      "Kann": 1531,
      "MA": 1532,
      "egt": 1533,
      "sinn": 1534,
      "uck": 1535,
      "ĠIch": 1536,
      "ĠrÃ¼": 1537,
      "eigen": 1538,
      "Ġwel": 1539,
      "Ġweh": 1540,
      "Ã¤h": 1541,
      "Ã¤m": 1542,
      "angt": 1543,
      "Ġbun": 1544,
      "ĠGlie": 1545,
      "Ġzusammen": 1546,
      "ĠHÃ¼": 1547,
      "Ġkon": 1548,
      "unft": 1549,
      "ĠLÃ¼": 1550,
      "ĠEur": 1551,
      "Ġth": 1552,
      "reift": 1553,
      "ĠstÃ¼r": 1554,
      "undert": 1555,
      "Ġhinaus": 1556,
      "uÃŁt": 1557,
      "CHEN": 1558,
      "Ġob": 1559,
      "rieb": 1560,
      "rieden": 1561,
      "Ġdavon": 1562,
      "ĠOrt": 1563,
      "Ġjedes": 1564,
      "Ġklug": 1565,
      "Ġgenie": 1566,
      "Ġseht": 1567,
      "Ġneuen": 1568,
      "ĠArm": 1569,
      "ĠhÃ¶rt": 1570,
      "THALE": 1571,
      "ĠhÃ¶chsten": 1572,
      "ĠSchwester": 1573,
      "ĠKaiser": 1574,
      "THALES": 1575,
      "FRO": 1576,
      "Faust": 1577,
      "Gleich": 1578,
      "HER": 1579,
      "Ihm": 1580,
      "REN": 1581,
      "lein": 1582,
      "og": 1583,
      "Ġehr": 1584,
      "ĠwÃ¼": 1585,
      "Ġwand": 1586,
      "Ġwissen": 1587,
      "Ã¤mm": 1588,
      "Ã¶s": 1589,
      "Ġfra": 1590,
      "ord": 1591,
      "ĠWein": 1592,
      "ĠWesen": 1593,
      "etter": 1594,
      "Ġerl": 1595,
      "igkeit": 1596,
      "urm": 1597,
      "ĠTier": 1598,
      "bend": 1599,
      "ĠKunst": 1600,
      "ĠSchiff": 1601,
      "lichkeit": 1602,
      "reck": 1603,
      "recken": 1604,
      "Ġtrei": 1605,
      "Ġtut": 1606,
      "reifen": 1607,
      "ander": 1608,
      "Ġunsrer": 1609,
      "Ġihrem": 1610,
      "ĠZei": 1611,
      "ĠStimm": 1612,
      "Ġhabt": 1613,
      "ilden": 1614,
      "Ġdieses": 1615,
      "Ã¼nst": 1616,
      "Ġneue": 1617,
      "Ġreich": 1618,
      "Ġsolchen": 1619,
      "Ġfinden": 1620,
      "ĠHimmels": 1621,
      "Ġeure": 1622,
      "ĠCh": 1623,
      "Ġvielleicht": 1624,
      "Ġendlich": 1625,
      "FROSCH": 1626,
      "',": 1627,
      "app": 1628,
      "bet": 1629,
      "gru": 1630,
      "hÃ¼": 1631,
      "pe": 1632,
      "wÃ¼r": 1633,
      "enk": 1634,
      "erst": 1635,
      "Ġwunder": 1636,
      "Ġganzen": 1637,
      "elnd": 1638,
      "elten": 1639,
      "elbst": 1640,
      "Ġbr": 1641,
      "ĠGut": 1642,
      "ittern": 1643,
      "ĠWol": 1644,
      "etzen": 1645,
      "Ġerk": 1646,
      "Ġerste": 1647,
      "ĠMund": 1648,
      "ĠLuft": 1649,
      "Ġverf": 1650,
      "Ġgeben": 1651,
      "Ġgehen": 1652,
      "ĠEn": 1653,
      "ĠEs": 1654,
      "Ġtr": 1655,
      "ande": 1656,
      "Ġallem": 1657,
      "leicht": 1658,
      "ĠStadt": 1659,
      "Vers": 1660,
      "ufen": 1661,
      "Ġsprich": 1662,
      "ĠErden": 1663,
      "ĠOpfer": 1664,
      "lieb": 1665,
      "ĠJa": 1666,
      "Ġlieben": 1667,
      "Ġklein": 1668,
      "uldig": 1669,
      "Ã¼tter": 1670,
      "ĠFels": 1671,
      "Ã¤hrt": 1672,
      "Ġbesten": 1673,
      "ĠHelden": 1674,
      "Ġetwas": 1675,
      "HEROLD": 1676,
      "Geh": 1677,
      "IT": 1678,
      "Nein": 1679,
      "SI": 1680,
      "hend": 1681,
      "ib": 1682,
      "ik": 1683,
      "letzt": 1684,
      "rung": 1685,
      "erzen": 1686,
      "stes": 1687,
      "Ã¤ter": 1688,
      "inge": 1689,
      "ĠGeh": 1690,
      "ĠGrie": 1691,
      "Ġzuletzt": 1692,
      "Ġeines": 1693,
      "ettet": 1694,
      "Ġerz": 1695,
      "Ġlassen": 1696,
      "ĠFrei": 1697,
      "ĠFÃ¼ÃŁen": 1698,
      "Ġkenn": 1699,
      "igem": 1700,
      "unter": 1701,
      "ĠMephistopheles": 1702,
      "ĠMÃ¤dchen": 1703,
      "ĠSchn": 1704,
      "ochen": 1705,
      "ale": 1706,
      "ĠtrÃ¼": 1707,
      "Ġtritt": 1708,
      "Ġsteigt": 1709,
      "âĢľ": 1710,
      "âĢĿ": 1711,
      "Ġwollen": 1712,
      "icksal": 1713,
      "Ġhinein": 1714,
      "Ã¶ren": 1715,
      "Ġschwar": 1716,
      "ĠschÃ¶ne": 1717,
      "Ġsage": 1718,
      "ĠAuft": 1719,
      "ĠmuÃŁt": 1720,
      "ĠGesicht": 1721,
      "Geb": 1722,
      "Gef": 1723,
      "ĠHÃ¶lle": 1724,
      "glÃ¼ck": 1725,
      "ALT": 1726,
      "ĠmÃ¶cht": 1727,
      "ĠmÃ¶chte": 1728,
      "RON": 1729,
      "ĠLiebchen": 1730,
      "ĠHoffnung": 1731,
      "ĠwÃ¤re": 1732,
      "ĠkÃ¶nnt": 1733,
      "Ġguten": 1734,
      "retchen": 1735,
      "ĠkÃ¼hn": 1736,
      "ĠHexen": 1737,
      "wÃ¤rts": 1738,
      "ĠtrÃ¤gt": 1739,
      "Ġedlen": 1740,
      "ĠNebel": 1741,
      "ĠGegenwart": 1742,
      "?--": 1743,
      "BR": 1744,
      "Bl": 1745,
      "Drum": 1746,
      "Euch": 1747,
      "Hin": 1748,
      "Jetzt": 1749,
      "Sol": 1750,
      "SIE": 1751,
      "YER": 1752,
      "gte": 1753,
      "gar": 1754,
      "hol": 1755,
      "ler": 1756,
      "los": 1757,
      "od": 1758,
      "sicht": 1759,
      "uten": 1760,
      "welt": 1761,
      "ied": 1762,
      "Ġgn": 1763,
      "Ġheut": 1764,
      "ĠGr": 1765,
      "auben": 1766,
      "ichten": 1767,
      "ĠfaÃŁt": 1768,
      "Ġfassen": 1769,
      "orten": 1770,
      "ĠWer": 1771,
      "ĠWerk": 1772,
      "eucht": 1773,
      "ĠlÃ¤ngst": 1774,
      "ĠFest": 1775,
      "ĠBeg": 1776,
      "Ġkn": 1777,
      "ĠMÃ¤n": 1778,
      "ĠSchÃ¤t": 1779,
      "als": 1780,
      "rev": 1781,
      "Ġtun": 1782,
      "Ġtragen": 1783,
      "reite": 1784,
      "inde": 1785,
      "ĠPar": 1786,
      "rab": 1787,
      "Ġunsern": 1788,
      "Ã¶nnt": 1789,
      "ĠDER": 1790,
      "ĠZw": 1791,
      "ĠStelle": 1792,
      "Ġwoll": 1793,
      "Ġherab": 1794,
      "pfel": 1795,
      "eilt": 1796,
      "reuen": 1797,
      "CHI": 1798,
      "ĠJÃ¼n": 1799,
      "Ġliebe": 1800,
      "Ġsollt": 1801,
      "ĠschÃ¶nsten": 1802,
      "ĠUnter": 1803,
      "ĠGeschlecht": 1804,
      "ĠFluch": 1805,
      "ĠGefÃ¼hl": 1806,
      "ĠLiebes": 1807,
      "riff": 1808,
      "ĠJahre": 1809,
      "BEL": 1810,
      "Ġfreundlich": 1811,
      "Kommt": 1812,
      "Ġtreten": 1813,
      "ĠSterne": 1814,
      "ĠFlÃ¼gel": 1815,
      "ĠfrÃ¼h": 1816,
      "MAYER": 1817,
      "ALTMAYER": 1818,
      "SIEBEL": 1819,
      "Bald": 1820,
      "EL": 1821,
      "EU": 1822,
      "Ha": 1823,
      "Kein": 1824,
      "Weh": 1825,
      "XE": 1826,
      "ed": 1827,
      "kehr": 1828,
      "mann": 1829,
      "uer": 1830,
      "umm": 1831,
      "Ġmachen": 1832,
      "Ã¼cht": 1833,
      "Ġgra": 1834,
      "Ġnennen": 1835,
      "Ġhar": 1836,
      "Ġheute": 1837,
      "ĠSinnen": 1838,
      "llig": 1839,
      "ĠGem": 1840,
      "empel": 1841,
      "Ã¶sen": 1842,
      "Ã¶pf": 1843,
      "Ġfor": 1844,
      "Ġfiel": 1845,
      "ĠschÃ¼t": 1846,
      "ĠWillen": 1847,
      "scher": 1848,
      "Ġerb": 1849,
      "ĠTr": 1850,
      "ĠTor": 1851,
      "ĠTempel": 1852,
      "ĠKne": 1853,
      "ĠSchlÃ¼": 1854,
      "Ġunbe": 1855,
      "reben": 1856,
      "Ġtrin": 1857,
      "Dies": 1858,
      "ĠAnt": 1859,
      "ernt": 1860,
      "Ġans": 1861,
      "ĠNamen": 1862,
      "Ġbew": 1863,
      "eilen": 1864,
      "immer": 1865,
      "Ġvorbei": 1866,
      "ahrt": 1867,
      "Ġspricht": 1868,
      "Ġjeden": 1869,
      "Ġregt": 1870,
      "Ġkeinen": 1871,
      "Ġkeiner": 1872,
      "ings": 1873,
      "Ġstehen": 1874,
      "Ġhoff": 1875,
      "Ġkannst": 1876,
      "mals": 1877,
      "Ġgesehn": 1878,
      "Ġgebracht": 1879,
      "quem": 1880,
      "ĠgroÃŁe": 1881,
      "ÃľLER": 1882,
      "ĠSchmerz": 1883,
      "ĠUND": 1884,
      "ĠfÃ¼hlt": 1885,
      "ĠThat": 1886,
      "Herr": 1887,
      "ĠSchÃ¶nheit": 1888,
      "Ġhalb": 1889,
      "ĠNachbar": 1890,
      "ĠTraum": 1891,
      "Ġgrimm": 1892,
      "ĠZeichen": 1893,
      "ĠAuftritt": 1894,
      "CHIRON": 1895,
      "Besch": 1896,
      "RER": 1897,
      "TCHEN": 1898,
      "fter": 1899,
      "ly": 1900,
      "nst": 1901,
      "seln": 1902,
      "th": 1903,
      "zie": 1904,
      "ende": 1905,
      "eige": 1906,
      "eitet": 1907,
      "Ġsin": 1908,
      "ĠhÃ¼": 1909,
      "Ã¤us": 1910,
      "Ġbra": 1911,
      "ĠGen": 1912,
      "aunen": 1913,
      "orden": 1914,
      "itten": 1915,
      "itze": 1916,
      "ĠWÃ¼r": 1917,
      "ĠWahr": 1918,
      "Ġkam": 1919,
      "ĠMa": 1920,
      "ĠKo": 1921,
      "ĠSchatten": 1922,
      "ĠSchicksal": 1923,
      "ĠLauf": 1924,
      "alte": 1925,
      "Ġtrau": 1926,
      "Ã¶nt": 1927,
      "ĠDank": 1928,
      "ĠNar": 1929,
      "ĠStunden": 1930,
      "Ġwollt": 1931,
      "umen": 1932,
      "Ġhinab": 1933,
      "Ġmanch": 1934,
      "Ã¶rder": 1935,
      "rieben": 1936,
      "Ġentgegen": 1937,
      "herr": 1938,
      "ĠGlas": 1939,
      "ĠGlanz": 1940,
      "ĠHerren": 1941,
      "Ġklar": 1942,
      "ĠSchwert": 1943,
      "Ġanders": 1944,
      "ĠKÃ¶nigs": 1945,
      "ĠSegen": 1946,
      "ĠArt": 1947,
      "ĠArmen": 1948,
      "ĠHause": 1949,
      "Ġzieht": 1950,
      "ĠGefahr": 1951,
      "Ġbesser": 1952,
      "Ġstillen": 1953,
      "Ġfroh": 1954,
      "eimnis": 1955,
      "ĠGrund": 1956,
      "ĠFlamme": 1957,
      "ĠGestalt": 1958,
      "RETCHEN": 1959,
      "ĠmÃ¼ssen": 1960,
      "Ġfehlt": 1961,
      "ĠkrÃ¤ftig": 1962,
      "rings": 1963,
      "ĠPriesterin": 1964,
      "ĠGlieder": 1965,
      "RENEN": 1966,
      "ĠStimme": 1967,
      "SIRENEN": 1968,
      "ĠJÃ¼ngl": 1969,
      "ĠWahrheit": 1970,
      "FÃ¼hl": 1971,
      "Gar": 1972,
      "Hast": 1973,
      "ION": 1974,
      "Lie": 1975,
      "MME": 1976,
      "Ste": 1977,
      "Woll": 1978,
      "iÃŁt": 1979,
      "mer": 1980,
      "nes": 1981,
      "oben": 1982,
      "osen": 1983,
      "sa": 1984,
      "wort": 1985,
      "Ġrings": 1986,
      "Ġdrei": 1987,
      "Ġweil": 1988,
      "essen": 1989,
      "Ġacht": 1990,
      "Ġhil": 1991,
      "ĠSo": 1992,
      "Ġbringen": 1993,
      "ĠGi": 1994,
      "ĠGn": 1995,
      "ĠGer": 1996,
      "ĠGet": 1997,
      "ĠGunst": 1998,
      "auen": 1999,
      "Ã¶se": 2000,
      "gehn": 2001,
      "ĠWill": 2002,
      "Ġerwar": 2003,
      "ĠFall": 2004,
      "ĠBuch": 2005,
      "ĠBurg": 2006,
      "iges": 2007,
      "ĠMitt": 2008,
      "ĠKrie": 2009,
      "ĠSchr": 2010,
      "Ġsiehst": 2011,
      "Ġinn": 2012,
      "ĠRÃ¼cken": 2013,
      "ĠAb": 2014,
      "Ã¼rt": 2015,
      "roÃŁ": 2016,
      "utz": 2017,
      "ĠVert": 2018,
      "Ġmeines": 2019,
      "Ġoffen": 2020,
      "Ġdahin": 2021,
      "Ġihnen": 2022,
      "ister": 2023,
      "zug": 2024,
      "allt": 2025,
      "ĠGlut": 2026,
      "Ã¼hren": 2027,
      "ĠPfer": 2028,
      "ĠWeise": 2029,
      "ohnt": 2030,
      "Ġsolcher": 2031,
      "Ġheiligen": 2032,
      "ANDER": 2033,
      "SCHÃľLER": 2034,
      "Ġruhig": 2035,
      "ĠLeib": 2036,
      "Entf": 2037,
      "ĠschlÃ¤": 2038,
      "ĠRuh": 2039,
      "ĠRuhm": 2040,
      "ĠAlt": 2041,
      "Ġlieblich": 2042,
      "Ġletzte": 2043,
      "Ã¶hnt": 2044,
      "Ġbewegt": 2045,
      "ĠgenieÃŁen": 2046,
      "ĠWolken": 2047,
      "!âĢĶ": 2048,
      "AME": 2049,
      "Ber": 2050,
      "Beg": 2051,
      "Bist": 2052,
      "DEN": 2053,
      "GRETCHEN": 2054,
      "PRO": 2055,
      "RIT": 2056,
      "Sein": 2057,
      "Seht": 2058,
      "eck": 2059,
      "hÃ¶": 2060,
      "ian": 2061,
      "ios": 2062,
      "rand": 2063,
      "risch": 2064,
      "rang": 2065,
      "svoll": 2066,
      "will": 2067,
      "zw": 2068,
      "zlich": 2069,
      "Ġrie": 2070,
      "ĠÃĦ": 2071,
      "ĠdrÃ¤ngt": 2072,
      "eid": 2073,
      "Ġselt": 2074,
      "iegen": 2075,
      "iefen": 2076,
      "stet": 2077,
      "ĠnÃ¤": 2078,
      "Ġhalten": 2079,
      "asen": 2080,
      "anke": 2081,
      "ĠGast": 2082,
      "Ã¶st": 2083,
      "ged": 2084,
      "ĠschÃ¤t": 2085,
      "ĠWahn": 2086,
      "eug": 2087,
      "Ġlust": 2088,
      "ĠFerne": 2089,
      "ĠkÃ¼n": 2090,
      "Ġkennt": 2091,
      "ĠMas": 2092,
      "ĠMar": 2093,
      "ĠMag": 2094,
      "ĠTon": 2095,
      "ĠTagen": 2096,
      "ĠKrÃ¤": 2097,
      "ĠLohn": 2098,
      "alb": 2099,
      "Ġdenken": 2100,
      "rech": 2101,
      "ĠEi": 2102,
      "reichen": 2103,
      "ĠAll": 2104,
      "ĠAuf": 2105,
      "ehmen": 2106,
      "ĠPu": 2107,
      "rot": 2108,
      "ISTER": 2109,
      "ĠDas": 2110,
      "Ġstre": 2111,
      "ĠNÃ¤": 2112,
      "ĠZeiten": 2113,
      "ĠStunde": 2114,
      "ĠvorÃ¼ber": 2115,
      "Verb": 2116,
      "Ġdiesmal": 2117,
      "lieÃŁen": 2118,
      "Ġselber": 2119,
      "Ġbeiden": 2120,
      "ĠLied": 2121,
      "baren": 2122,
      "ĠFreuden": 2123,
      "Ġwerde": 2124,
      "Ã¤ndig": 2125,
      "rÃ¤ngen": 2126,
      "getan": 2127,
      "gebracht": 2128,
      "ĠheiÃŁt": 2129,
      "Ġverschl": 2130,
      "PHORION": 2131,
      "Ġziehn": 2132,
      "Ġeignen": 2133,
      "rÃ¶ÃŁ": 2134,
      "Ã¼nden": 2135,
      "ĠfÃ¼hrt": 2136,
      "Ġemp": 2137,
      "ĠHof": 2138,
      "ĠglÃ¤n": 2139,
      "Ġzerst": 2140,
      "ĠGruÃŁ": 2141,
      "Ġunserm": 2142,
      "Warum": 2143,
      "ĠQual": 2144,
      "ĠWohl": 2145,
      "ĠElem": 2146,
      "ĠhÃ¤tt": 2147,
      "Ġbegehrt": 2148,
      "ĠÃ¼b": 2149,
      "ĠRath": 2150,
      "ĠHÃ¼gel": 2151,
      "ĠGriechen": 2152,
      "BRANDER": 2153,
      "EUPHORION": 2154,
      "Ġhilft": 2155,
      "Gl": 2156,
      "Gen": 2157,
      "Gel": 2158,
      "Ganz": 2159,
      "KER": 2160,
      "Seh": 2161,
      "Vern": 2162,
      "acken": 2163,
      "bes": 2164,
      "eb": 2165,
      "fÃ¼r": 2166,
      "ha": 2167,
      "heil": 2168,
      "ient": 2169,
      "kel": 2170,
      "keiten": 2171,
      "nem": 2172,
      "pr": 2173,
      "ssel": 2174,
      "uchen": 2175,
      "yt": 2176,
      "zogen": 2177,
      "ĠÃ¤": 2178,
      "Ġpf": 2179,
      "Ġeuer": 2180,
      "ĠÃľber": 2181,
      "ĠdÃ¼": 2182,
      "Ġdrin": 2183,
      "ĠdÃ¼n": 2184,
      "eiÃŁ": 2185,
      "eiter": 2186,
      "Ġseit": 2187,
      "ĠsÃ¼ÃŁ": 2188,
      "ieg": 2189,
      "Ġmach": 2190,
      "Ġahn": 2191,
      "Ã¼llt": 2192,
      "ĠgrÃ¤": 2193,
      "ĠSor": 2194,
      "ankt": 2195,
      "ĠGrÃ¼": 2196,
      "ĠHÃ¼l": 2197,
      "Ġschafft": 2198,
      "ĠWe": 2199,
      "ĠWelle": 2200,
      "ĠWald": 2201,
      "eus": 2202,
      "onn": 2203,
      "Ġerblick": 2204,
      "ĠlaÃŁt": 2205,
      "ĠFrieden": 2206,
      "ĠBet": 2207,
      "Ġkennen": 2208,
      "ĠTeil": 2209,
      "ĠSchuld": 2210,
      "Ġvergebens": 2211,
      "STI": 2212,
      "lichem": 2213,
      "Ġgeg": 2214,
      "Ġgek": 2215,
      "Ġgep": 2216,
      "Ġunver": 2217,
      "recht": 2218,
      "derben": 2219,
      "Ġtot": 2220,
      "reisen": 2221,
      "ĠPo": 2222,
      "Ã¶nen": 2223,
      "raus": 2224,
      "rauch": 2225,
      "esten": 2226,
      "Erf": 2227,
      "Ġbequem": 2228,
      "reut": 2229,
      "Ġdeines": 2230,
      "icken": 2231,
      "Ġhinauf": 2232,
      "Ġhinweg": 2233,
      "ilt": 2234,
      "Ġwarum": 2235,
      "Ġweiten": 2236,
      "Ġsollte": 2237,
      "Ġrechten": 2238,
      "Ġed": 2239,
      "Ġbeim": 2240,
      "ĠSpur": 2241,
      "Ġpl": 2242,
      "Ġvielen": 2243,
      "ĠGÃ¶ttern": 2244,
      "ĠSeel": 2245,
      "spiel": 2246,
      "ĠgroÃŁer": 2247,
      "Alle": 2248,
      "Alles": 2249,
      "Ġjenem": 2250,
      "GEL": 2251,
      "ĠfÃ¼hren": 2252,
      "Ġdran": 2253,
      "ĠwÃ¼rdig": 2254,
      "Ġbraucht": 2255,
      "Ã¶lk": 2256,
      "ĠFeind": 2257,
      "ippen": 2258,
      "Ġleuchtet": 2259,
      "ĠJammer": 2260,
      "ĠMÃ¤nner": 2261,
      "Ġempor": 2262,
      "BER": 2263,
      "Damit": 2264,
      "EUS": 2265,
      "ICH": 2266,
      "REI": 2267,
      "Zwei": 2268,
      "ap": 2269,
      "ade": 2270,
      "ahm": 2271,
      "kraft": 2272,
      "selt": 2273,
      "wir": 2274,
      "zut": 2275,
      "Ãĸ": 2276,
      "ĠÃ¶": 2277,
      "ens": 2278,
      "enster": 2279,
      "ere": 2280,
      "ĠdÃ¼r": 2281,
      "Ġwert": 2282,
      "essel": 2283,
      "ĠmÃ¤chtig": 2284,
      "Ã¼ll": 2285,
      "Ã¼gt": 2286,
      "Ã¼lle": 2287,
      "ĠgÃ¶t": 2288,
      "Ġhell": 2289,
      "Ġhundert": 2290,
      "ĠSÃ¤": 2291,
      "instern": 2292,
      "Ġbem": 2293,
      "ĠGretchen": 2294,
      "ĠfÃ¤llt": 2295,
      "ĠWand": 2296,
      "ĠWeh": 2297,
      "ĠWellen": 2298,
      "euten": 2299,
      "Ġerget": 2300,
      "Ġleer": 2301,
      "ĠFenster": 2302,
      "ĠBand": 2303,
      "Ġkurz": 2304,
      "unsch": 2305,
      "ĠMeister": 2306,
      "ĠTÃ¼r": 2307,
      "ĠTanz": 2308,
      "ĠTief": 2309,
      "Ġverh": 2310,
      "Ġungeh": 2311,
      "reise": 2312,
      "ĠRÃ¼ck": 2313,
      "ĠAhn": 2314,
      "andt": 2315,
      "Ġanzu": 2316,
      "Ġstren": 2317,
      "estÃ¤t": 2318,
      "ĠZug": 2319,
      "ĠStamm": 2320,
      "Ã¼cklich": 2321,
      "Ġherauf": 2322,
      "Ã¤nger": 2323,
      "stens": 2324,
      "Ġums": 2325,
      "ĠĠĠĠĠĠĠ": 2326,
      "euchten": 2327,
      "Verl": 2328,
      "Verzei": 2329,
      "Ã¶rp": 2330,
      "Ġauszu": 2331,
      "Ġwaren": 2332,
      "ĠweiÃŁt": 2333,
      "Schm": 2334,
      "Schau": 2335,
      "Ġhierher": 2336,
      "ĠOrest": 2337,
      "ktor": 2338,
      "ĠlieÃŁ": 2339,
      "ĠÃ¼berall": 2340,
      "Ġgewalt": 2341,
      "Wohin": 2342,
      "ĠSpiel": 2343,
      "renzen": 2344,
      "lauen": 2345,
      "Ġsehe": 2346,
      "Ġsehen": 2347,
      "gessen": 2348,
      "ĠGespen": 2349,
      "ĠTochter": 2350,
      "ildet": 2351,
      "ĠFeld": 2352,
      "Ġbleiben": 2353,
      "ĠSchmuck": 2354,
      "ĠSchmerzen": 2355,
      "ANT": 2356,
      "Ġverloren": 2357,
      "Ġfreilich": 2358,
      "ĠfÃ¼hle": 2359,
      "flucht": 2360,
      "Ã¤ume": 2361,
      "Ã¤umt": 2362,
      "Ġnimmt": 2363,
      "Ġnimmer": 2364,
      "ĠhÃ¤tte": 2365,
      "ĠDiener": 2366,
      "oppelt": 2367,
      "Ġdroben": 2368,
      "Ġfrommen": 2369,
      "Ġfragt": 2370,
      "ĠSchlÃ¼ssel": 2371,
      "herrn": 2372,
      "ĠJÃ¼ngling": 2373,
      "ĠAltar": 2374,
      "Ab": 2375,
      "DE": 2376,
      "DAME": 2377,
      "EXE": 2378,
      "Gest": 2379,
      "GEN": 2380,
      "HÃ¶r": 2381,
      "Hab": 2382,
      "LO": 2383,
      "LU": 2384,
      "MuÃŁ": 2385,
      "Ob": 2386,
      "Selbst": 2387,
      "TI": 2388,
      "az": 2389,
      "bild": 2390,
      "eckt": 2391,
      "fall": 2392,
      "gner": 2393,
      "ion": 2394,
      "kunft": 2395,
      "land": 2396,
      "nach": 2397,
      "piel": 2398,
      "ss": 2399,
      "ud": 2400,
      "zur": 2401,
      "zeit": 2402,
      "ĠUnd": 2403,
      "Ġra": 2404,
      "ĠÃ¤ngst": 2405,
      "erg": 2406,
      "Ġdrau": 2407,
      "Ġdringt": 2408,
      "Ġdamit": 2409,
      "Ġsucht": 2410,
      "iele": 2411,
      "Ġwendet": 2412,
      "Ã¼re": 2413,
      "ĠgrÃ¶ÃŁ": 2414,
      "Ġnenn": 2415,
      "Ġhie": 2416,
      "Ġhebt": 2417,
      "Ã¤ste": 2418,
      "Ã¤mt": 2419,
      "ĠSa": 2420,
      "ĠStern": 2421,
      "ĠSold": 2422,
      "ĠSinne": 2423,
      "inke": 2424,
      "Ġzeigt": 2425,
      "Ġbrin": 2426,
      "aube": 2427,
      "Ã¶h": 2428,
      "Ġzugleich": 2429,
      "Ġfei": 2430,
      "Ġschle": 2431,
      "ĠWohn": 2432,
      "ĠWink": 2433,
      "ĠWunsch": 2434,
      "euen": 2435,
      "schein": 2436,
      "ĠBÃ¼": 2437,
      "Ġkehrt": 2438,
      "hnt": 2439,
      "unken": 2440,
      "ĠMo": 2441,
      "ĠMÃ¼": 2442,
      "ĠMacht": 2443,
      "ĠMauern": 2444,
      "ĠTrÃ¤": 2445,
      "ĠKir": 2446,
      "ĠKlei": 2447,
      "ĠKetten": 2448,
      "Ġverlie": 2449,
      "Ġsieh": 2450,
      "Ġtrug": 2451,
      "reitet": 2452,
      "ĠRett": 2453,
      "ĠAt": 2454,
      "ĠPaar": 2455,
      "rag": 2456,
      "Ġaufs": 2457,
      "Ġjunge": 2458,
      "ĠDo": 2459,
      "raun": 2460,
      "ĠZiel": 2461,
      "ĠStein": 2462,
      "Ġherbei": 2463,
      "Ġalter": 2464,
      "Ġmanche": 2465,
      "Ġmancher": 2466,
      "imml": 2467,
      "immt": 2468,
      "olle": 2469,
      "euchte": 2470,
      "Schn": 2471,
      "Ã¤tt": 2472,
      "Ġjede": 2473,
      "Ġreine": 2474,
      "Ġsteh": 2475,
      "Ġleid": 2476,
      "Ġkleine": 2477,
      "ĠSchwelle": 2478,
      "TEUS": 2479,
      "Ġgeboren": 2480,
      "Ġneues": 2481,
      "Ġsolche": 2482,
      "Ġewigen": 2483,
      "ĠTages": 2484,
      "Ġjenen": 2485,
      "ĠRede": 2486,
      "Ġtiefer": 2487,
      "Bef": 2488,
      "ĠJahren": 2489,
      "ĠEinsam": 2490,
      "ĠInn": 2491,
      "Ġglaub": 2492,
      "ĠwÃ¼rde": 2493,
      "Ġholden": 2494,
      "Ġviele": 2495,
      "oppel": 2496,
      "echsel": 2497,
      "Ġgoldne": 2498,
      "Ġsolchem": 2499,
      "Ġeinzig": 2500,
      "ĠFÃ¼rsten": 2501,
      "Ġbunten": 2502,
      "Habt": 2503,
      "ĠKnecht": 2504,
      "ĠMittel": 2505,
      "PROTEUS": 2506,
      "ĠnÃ¤her": 2507,
      "ĠRettung": 2508,
      "GER": 2509,
      "Gib": 2510,
      "IER": 2511,
      "Nie": 2512,
      "Sonst": 2513,
      "WEI": 2514,
      "freu": 2515,
      "gang": 2516,
      "haus": 2517,
      "ja": 2518,
      "jestÃ¤t": 2519,
      "klich": 2520,
      "lÃ¤": 2521,
      "mÃ¶": 2522,
      "zuf": 2523,
      "zus": 2524,
      "Ġdeut": 2525,
      "eide": 2526,
      "Ġsan": 2527,
      "ieden": 2528,
      "ichte": 2529,
      "Ġwagen": 2530,
      "Ġwack": 2531,
      "einander": 2532,
      "Ġmensch": 2533,
      "Ġmorgen": 2534,
      "Ã¼hn": 2535,
      "ĠgÃ¼nst": 2536,
      "elte": 2537,
      "ĠnÃ¼t": 2538,
      "aschen": 2539,
      "Ġfal": 2540,
      "ĠfÃ¤ngt": 2541,
      "gek": 2542,
      "ĠHin": 2543,
      "ĠHoch": 2544,
      "Ġscharf": 2545,
      "Ġeinst": 2546,
      "ĠWind": 2547,
      "ĠWaffen": 2548,
      "ĠWorten": 2549,
      "eugt": 2550,
      "ons": 2551,
      "ĠFau": 2552,
      "ĠFinstern": 2553,
      "ĠBÃ¤": 2554,
      "ĠMu": 2555,
      "ĠMorgen": 2556,
      "ĠTaten": 2557,
      "ĠKÃ¼n": 2558,
      "Ġverlei": 2559,
      "Ġsicher": 2560,
      "Ġunten": 2561,
      "reiben": 2562,
      "ernen": 2563,
      "annte": 2564,
      "rage": 2565,
      "MEISTER": 2566,
      "rom": 2567,
      "Ġstolz": 2568,
      "rucht": 2569,
      "ERZ": 2570,
      "illt": 2571,
      "Ġherum": 2572,
      "uchte": 2573,
      "bek": 2574,
      "ischt": 2575,
      "Ins": 2576,
      "Ġmanchen": 2577,
      "ampf": 2578,
      "Ġspiel": 2579,
      "lieÃŁt": 2580,
      "Ġselig": 2581,
      "Ġalso": 2582,
      "Ġrechte": 2583,
      "Ġdurchs": 2584,
      "ĠGeistes": 2585,
      "Ġwiederhol": 2586,
      "Ġwerd": 2587,
      "ĠGesetz": 2588,
      "ĠGeschw": 2589,
      "ĠGewÃ¶l": 2590,
      "Ġblut": 2591,
      "Ġewige": 2592,
      "Ġjene": 2593,
      "ĠhÃ¶re": 2594,
      "Ġziehen": 2595,
      "EIN": 2596,
      "geschm": 2597,
      "Beden": 2598,
      "Ã¤hren": 2599,
      "rifft": 2600,
      "Ã¼ndet": 2601,
      "ĠfÃ¼hre": 2602,
      "schlag": 2603,
      "ĠkÃ¶nnte": 2604,
      "ĠGestalten": 2605,
      "ĠQuelle": 2606,
      "Ġlebendig": 2607,
      "ĠIl": 2608,
      "ĠIr": 2609,
      "ĠKnaben": 2610,
      "Ġtreff": 2611,
      "Ġbegegnen": 2612,
      "ĠOrd": 2613,
      "Ġfolgt": 2614,
      "Ġzwischen": 2615,
      "Ġkonnte": 2616,
      "wÃ¼rdig": 2617,
      "Ġbrennt": 2618,
      "ĠEngel": 2619,
      "ĠFreiheit": 2620,
      "Solch": 2621,
      "Ġwollte": 2622,
      "lymp": 2623,
      "ĠschlÃ¤gt": 2624,
      "ĠSorge": 2625,
      "'t": 2626,
      "Bet": 2627,
      "Bis": 2628,
      "Ew": 2629,
      "Heil": 2630,
      "KT": 2631,
      "MÃ¶": 2632,
      "Mag": 2633,
      "NT": 2634,
      "ete": 2635,
      "id": 2636,
      "kten": 2637,
      "len": 2638,
      "lust": 2639,
      "setz": 2640,
      "wor": 2641,
      "werk": 2642,
      "zÃ¤": 2643,
      "erlich": 2644,
      "Ġdank": 2645,
      "Ġdunk": 2646,
      "eile": 2647,
      "eise": 2648,
      "Ġsitzt": 2649,
      "Ġmel": 2650,
      "Ã¼ÃŁt": 2651,
      "Ġhalt": 2652,
      "Ã¤b": 2653,
      "Ã¤dig": 2654,
      "ase": 2655,
      "ĠSph": 2656,
      "Ġzwar": 2657,
      "Ġbricht": 2658,
      "ĠGei": 2659,
      "ĠGrÃ¤": 2660,
      "ĠGrab": 2661,
      "teste": 2662,
      "Ġflamm": 2663,
      "Ġfahren": 2664,
      "ĠHaar": 2665,
      "ĠHEXE": 2666,
      "Ġschien": 2667,
      "Ġscheinen": 2668,
      "Ġschaffen": 2669,
      "Ġschaff": 2670,
      "aren": 2671,
      "orn": 2672,
      "orgt": 2673,
      "ĠWonne": 2674,
      "schm": 2675,
      "Ġlebt": 2676,
      "ĠBei": 2677,
      "Ġkind": 2678,
      "ĠMÃ¤": 2679,
      "ĠSchau": 2680,
      "ĠSchale": 2681,
      "Ġversp": 2682,
      "Ġta": 2683,
      "Ġdumpf": 2684,
      "iere": 2685,
      "ĠPein": 2686,
      "ĠPap": 2687,
      "rahl": 2688,
      "rost": 2689,
      "ĠDichter": 2690,
      "ĠDian": 2691,
      "Ġstatt": 2692,
      "ĠNeu": 2693,
      "ĠStir": 2694,
      "Ġwohnen": 2695,
      "reus": 2696,
      "reuz": 2697,
      "ischer": 2698,
      "iss": 2699,
      "isse": 2700,
      "immen": 2701,
      "ollen": 2702,
      "Ã¤ren": 2703,
      "Ġschwei": 2704,
      "Ġschweben": 2705,
      "Ġdabei": 2706,
      "Ġsprach": 2707,
      "ĠOlymp": 2708,
      "Ġliebt": 2709,
      "Ġregen": 2710,
      "Ġgewinnen": 2711,
      "Ġgewohnt": 2712,
      "Ġwillkommen": 2713,
      "ĠschÃ¶ner": 2714,
      "ĠVerd": 2715,
      "Ġklingt": 2716,
      "Ġgeschm": 2717,
      "Ġgeschwind": 2718,
      "ĠfrÃ¶h": 2719,
      "Ġreichen": 2720,
      "Ġvollb": 2721,
      "Meine": 2722,
      "ĠHÃ¶llen": 2723,
      "Ġheilig": 2724,
      "Ġheimlich": 2725,
      "Ġjenes": 2726,
      "AND": 2727,
      "Ġschaut": 2728,
      "Ġwende": 2729,
      "Ġfindet": 2730,
      "Ġruft": 2731,
      "verwand": 2732,
      "Ġstille": 2733,
      "ĠLeiden": 2734,
      "ĠLeibe": 2735,
      "Ġverwir": 2736,
      "ĠbetrÃ¼": 2737,
      "windet": 2738,
      "Ġfreut": 2739,
      "ĠGebÃ¤r": 2740,
      "Ġgute": 2741,
      "Ġguter": 2742,
      "ĠSchÃ¶ne": 2743,
      "Ġholde": 2744,
      "ĠGedanken": 2745,
      "ĠEhre": 2746,
      "ĠwÃ¼nscht": 2747,
      "ĠBesitz": 2748,
      "ĠHÃ¤nden": 2749,
      "Ġtreibt": 2750,
      "ĠSchÃ¤tze": 2751,
      "ĠdÃ¼nkt": 2752,
      "ĠgrÃ¤ÃŁ": 2753,
      "ĠHÃ¼lfe": 2754,
      "STIMME": 2755,
      "ĠRÃ¼ckkehr": 2756,
      "ĠDoktor": 2757,
      "!âĢĿ": 2758,
      "AC": 2759,
      "AT": 2760,
      "AST": 2761,
      "ABE": 2762,
      "BAL": 2763,
      "Eur": 2764,
      "Heut": 2765,
      "HABE": 2766,
      "KNA": 2767,
      "NGEL": 2768,
      "OBER": 2769,
      "WÃ¼r": 2770,
      "abe": 2771,
      "ackt": 2772,
      "br": 2773,
      "bten": 2774,
      "bus": 2775,
      "dlich": 2776,
      "echt": 2777,
      "epp": 2778,
      "fuÃŁ": 2779,
      "hten": 2780,
      "im": 2781,
      "nest": 2782,
      "rungen": 2783,
      "setzen": 2784,
      "tlich": 2785,
      "zig": 2786,
      "ĠÃľ": 2787,
      "Ġster": 2788,
      "Ġsingen": 2789,
      "Ġsitzen": 2790,
      "ies": 2791,
      "iesen": 2792,
      "ietet": 2793,
      "ichen": 2794,
      "steht": 2795,
      "Ġwach": 2796,
      "Ġweder": 2797,
      "Ġwilden": 2798,
      "einst": 2799,
      "Ġmer": 2800,
      "Ã¼st": 2801,
      "Ã¼te": 2802,
      "Ã¼ge": 2803,
      "ĠnÃ¤cht": 2804,
      "Ġnennt": 2805,
      "Ġhiel": 2806,
      "Ã¤st": 2807,
      "Ã¤ht": 2808,
      "innt": 2809,
      "inkt": 2810,
      "Ġzau": 2811,
      "Ġvier": 2812,
      "ĠbiÃŁ": 2813,
      "Ġbreit": 2814,
      "ĠGE": 2815,
      "ĠGal": 2816,
      "ĠGaben": 2817,
      "ĠGarten": 2818,
      "hren": 2819,
      "aufen": 2820,
      "genheit": 2821,
      "Ġfein": 2822,
      "schte": 2823,
      "one": 2824,
      "Ġerqu": 2825,
      "ĠlÃ¤nger": 2826,
      "ĠBr": 2827,
      "ĠBeh": 2828,
      "ĠBeste": 2829,
      "Ġkur": 2830,
      "ĠkÃ¼hl": 2831,
      "ĠMaÃŁ": 2832,
      "ĠTa": 2833,
      "ĠTrug": 2834,
      "ĠKreise": 2835,
      "ĠKÃ¶rp": 2836,
      "ĠLaÃŁ": 2837,
      "Ġverste": 2838,
      "ĠEle": 2839,
      "ĠENGEL": 2840,
      "atze": 2841,
      "ĠtÃ¶nt": 2842,
      "ehmt": 2843,
      "ĠPylades": 2844,
      "Ã¼ren": 2845,
      "rachen": 2846,
      "leibt": 2847,
      "rock": 2848,
      "Ġihres": 2849,
      "deckt": 2850,
      "utzt": 2851,
      "Ġjeg": 2852,
      "ĠDunst": 2853,
      "Ġstellt": 2854,
      "ĠVol": 2855,
      "ĠVÃ¤ter": 2856,
      "ERAL": 2857,
      "ĠZu": 2858,
      "ĠStab": 2859,
      "Ġseines": 2860,
      "Erg": 2861,
      "Erh": 2862,
      "Ġheraus": 2863,
      "Ã¤ng": 2864,
      "Ã¤nge": 2865,
      "uchs": 2866,
      "ume": 2867,
      "beg": 2868,
      "Ġumf": 2869,
      "Ġvoraus": 2870,
      "Verd": 2871,
      "Vert": 2872,
      "Vergebens": 2873,
      "Ġschwebt": 2874,
      "rÃ¤cht": 2875,
      "Schw": 2876,
      "Ġentb": 2877,
      "Ġentw": 2878,
      "Ġdazu": 2879,
      "lieben": 2880,
      "Ġlieber": 2881,
      "Ġsollen": 2882,
      "Ġsollst": 2883,
      "Ġreinen": 2884,
      "Ġretten": 2885,
      "Ġgewesen": 2886,
      "Ġgewonnen": 2887,
      "ĠfÃ¼rchte": 2888,
      "Ġkommst": 2889,
      "ĠschÃ¶nes": 2890,
      "ĠHerrscher": 2891,
      "ĠVerderben": 2892,
      "ĠLieben": 2893,
      "ĠLieder": 2894,
      "Ġleider": 2895,
      "Wohl": 2896,
      "ĠSpaÃŁ": 2897,
      "ĠSpiegel": 2898,
      "laubt": 2899,
      "Ġwerdet": 2900,
      "gesp": 2901,
      "gesicht": 2902,
      "ĠGesang": 2903,
      "Nichts": 2904,
      "ĠGeschm": 2905,
      "ĠFlor": 2906,
      "ĠFlut": 2907,
      "ĠGewinn": 2908,
      "Ġreiche": 2909,
      "ĠHÃ¶he": 2910,
      "ĠHÃ¶hlen": 2911,
      "Ġheiter": 2912,
      "ĠheiÃŁen": 2913,
      "Ġbleibe": 2914,
      "Ġbereitet": 2915,
      "ROLO": 2916,
      "ĠHauses": 2917,
      "ĠgefÃ¤llt": 2918,
      "Ġfinde": 2919,
      "ĠVaters": 2920,
      "ĠgehÃ¶rt": 2921,
      "Ġverwor": 2922,
      "Ġbetro": 2923,
      "ĠRuhe": 2924,
      "ĠPlan": 2925,
      "FÃ¼rwahr": 2926,
      "ĠLande": 2927,
      "ĠSieg": 2928,
      "ĠHeld": 2929,
      "ĠThaten": 2930,
      "ĠglÃ¼cklich": 2931,
      "ĠBerge": 2932,
      "Ġvertraut": 2933,
      "ĠBed": 2934,
      "gnet": 2935,
      "gnis": 2936,
      "Ġglauben": 2937,
      "Seid": 2938,
      "Ã¼lt": 2939,
      "ittert": 2940,
      "ĠOhren": 2941,
      "Geschwind": 2942,
      "ĠPhant": 2943,
      "wahrt": 2944,
      "ndessen": 2945,
      "ĠEhren": 2946,
      "ĠNoth": 2947,
      "Ġirgend": 2948,
      "Ġnehmen": 2949,
      "Ġengen": 2950,
      "ĠFremden": 2951,
      "ĠLocken": 2952,
      "Ġwelche": 2953,
      "ĠLÃ¼fte": 2954,
      "ĠChor": 2955,
      "Ġwunderbar": 2956,
      "ĠgnÃ¤dig": 2957,
      "ĠBegier": 2958,
      "Ġgrimmig": 2959,
      "ĠMajestÃ¤t": 2960,
      "ĠGnaden": 2961,
      "ĠPferde": 2962,
      "ĠMasken": 2963,
      "ĠKrÃ¤fte": 2964,
      "ĠAhnherrn": 2965,
      "GENERAL": 2966,
      "ĠWohnung": 2967,
      "mÃ¶glich": 2968,
      "ASTROLO": 2969,
      "BALD": 2970,
      "HABEBALD": 2971,
      "KNABE": 2972,
      "ĠÃľbel": 2973,
      "ĠbiÃŁchen": 2974,
      "ASTROLOG": 2975,
      "ATER": 2976,
      "Bes": 2977,
      "BAC": 2978,
      "Ei": 2979,
      "Ger": 2980,
      "Hoch": 2981,
      "IEN": 2982,
      "LA": 2983,
      "PLU": 2984,
      "Sag": 2985,
      "TUS": 2986,
      "Vie": 2987,
      "Viel": 2988,
      "VALE": 2989,
      "Wen": 2990,
      "egen": 2991,
      "eten": 2992,
      "fach": 2993,
      "fort": 2994,
      "fang": 2995,
      "halt": 2996,
      "isten": 2997,
      "kelt": 2998,
      "ling": 2999,
      "mit": 3000,
      "met": 3001,
      "mehr": 3002,
      "ockt": 3003,
      "ocken": 3004,
      "pro": 3005,
      "rÃ¼ckt": 3006,
      "sk": 3007,
      "sw": 3008,
      "ute": 3009,
      "uhl": 3010,
      "vert": 3011,
      "volk": 3012,
      "zten": 3013,
      "zwei": 3014,
      "ĠIm": 3015,
      "Ġehren": 3016,
      "enkt": 3017,
      "Ġdrum": 3018,
      "eien": 3019,
      "Ġseg": 3020,
      "Ġsetzt": 3021,
      "Ġsingt": 3022,
      "iegt": 3023,
      "iebt": 3024,
      "ichtet": 3025,
      "ndem": 3026,
      "Ġmerk": 3027,
      "ĠmÃ¼ÃŁ": 3028,
      "elm": 3029,
      "Ġneben": 3030,
      "Ġhor": 3031,
      "Ã¤re": 3032,
      "Ã¤llig": 3033,
      "inken": 3034,
      "Ġzier": 3035,
      "Ġzart": 3036,
      "irg": 3037,
      "Ġbang": 3038,
      "Ġbitt": 3039,
      "aun": 3040,
      "Ã¶ff": 3041,
      "Ã¶llig": 3042,
      "ĠfaÃŁ": 3043,
      "Ġfast": 3044,
      "Ġfurcht": 3045,
      "Ġfrev": 3046,
      "gezogen": 3047,
      "ĠHar": 3048,
      "Ġschleicht": 3049,
      "ĠWissen": 3050,
      "eugen": 3051,
      "schwe": 3052,
      "ĠFlei": 3053,
      "ĠFurcht": 3054,
      "cker": 3055,
      "Ġko": 3056,
      "una": 3057,
      "ĠMein": 3058,
      "ĠMauer": 3059,
      "ĠTau": 3060,
      "ĠTisch": 3061,
      "ĠTritt": 3062,
      "ĠTant": 3063,
      "ĠTepp": 3064,
      "ĠKÃ¼": 3065,
      "ĠKerl": 3066,
      "ĠSchul": 3067,
      "ĠSchoÃŁ": 3068,
      "ĠSchauer": 3069,
      "ĠSchrecken": 3070,
      "ĠList": 3071,
      "ĠLEN": 3072,
      "ĠLeute": 3073,
      "Ġverfl": 3074,
      "Ġsichern": 3075,
      "Ġdenkt": 3076,
      "atan": 3077,
      "atter": 3078,
      "atÃ¼r": 3079,
      "ĠRache": 3080,
      "annten": 3081,
      "andelt": 3082,
      "andeln": 3083,
      "ĠPal": 3084,
      "ĠPro": 3085,
      "ĠPracht": 3086,
      "ram": 3087,
      "Ġallzu": 3088,
      "roh": 3089,
      "olden": 3090,
      "achte": 3091,
      "ĠDrei": 3092,
      "ruch": 3093,
      "ruÃŁ": 3094,
      "ĠVÃ¶lk": 3095,
      "ĠStÃ¼ck": 3096,
      "ĠSturm": 3097,
      "ehre": 3098,
      "Ersch": 3099,
      "sehn": 3100,
      "Ġhinten": 3101,
      "ĠhinÃ¼ber": 3102,
      "ilder": 3103,
      "Verg": 3104,
      "Versch": 3105,
      "Verflucht": 3106,
      "Sieh": 3107,
      "ellschaft": 3108,
      "egel": 3109,
      "Ġschwanken": 3110,
      "Ġspringt": 3111,
      "Ã¤ther": 3112,
      "ĠBlumen": 3113,
      "weis": 3114,
      "ĠÃ¼berm": 3115,
      "ĠÃ¼bert": 3116,
      "hebt": 3117,
      "Ġwillkomm": 3118,
      "alle": 3119,
      "Ġhatt": 3120,
      "Ġniemals": 3121,
      "ppen": 3122,
      "ĠVerb": 3123,
      "abel": 3124,
      "Ġhofft": 3125,
      "ĠMannes": 3126,
      "ĠGeistern": 3127,
      "Ġleise": 3128,
      "Ġgenau": 3129,
      "Ġgenommen": 3130,
      "Ġandrer": 3131,
      "ult": 3132,
      "Ġpr": 3133,
      "Ġgeschieht": 3134,
      "Ã¤nder": 3135,
      "ĠĠĠĠĠĠĠĠĠĠĠ": 3136,
      "ĠGesp": 3137,
      "ĠGesellen": 3138,
      "rÃ¤ng": 3139,
      "ĠgroÃŁes": 3140,
      "gebor": 3141,
      "Ġmagst": 3142,
      "Ġgelassen": 3143,
      "Ġgerne": 3144,
      "ĠheiÃŁ": 3145,
      "ĠRechte": 3146,
      "ĠSchlag": 3147,
      "ĠSchluÃŁ": 3148,
      "Ġverschw": 3149,
      "ĠhÃ¶her": 3150,
      "Ġwenden": 3151,
      "Ġziemt": 3152,
      "ĠFraun": 3153,
      "Bed": 3154,
      "Statt": 3155,
      "ĠAlten": 3156,
      "ĠAlter": 3157,
      "Ġdrein": 3158,
      "Ġschmeich": 3159,
      "Ġerfahren": 3160,
      "Ġgib": 3161,
      "Ġgerettet": 3162,
      "ĠHelen": 3163,
      "ĠMeeres": 3164,
      "Ġvertrau": 3165,
      "Ġbeschw": 3166,
      "INX": 3167,
      "NEREUS": 3168,
      "ĠInner": 3169,
      "Ġhalte": 3170,
      "drungen": 3171,
      "ĠWoge": 3172,
      "ĠElend": 3173,
      "Ġbehagen": 3174,
      "Ġdaran": 3175,
      "Ġstark": 3176,
      "ĠOrte": 3177,
      "Ã¤ÃŁig": 3178,
      "ĠmÃ¼ÃŁt": 3179,
      "ĠDienst": 3180,
      "ĠSchwestern": 3181,
      "Ġernst": 3182,
      "Ġgedacht": 3183,
      "muth": 3184,
      "ĠHain": 3185,
      "Ġeilig": 3186,
      "ĠFÃ¼rst": 3187,
      "ĠZweifel": 3188,
      "Ġkonnt": 3189,
      "Ġtreiben": 3190,
      "grund": 3191,
      "hÃ¼llen": 3192,
      "ĠGutes": 3193,
      "Ġschwarzen": 3194,
      "Ġgrad": 3195,
      "Ġfordert": 3196,
      "ĠNarr": 3197,
      "eimnisvoll": 3198,
      "Steht": 3199,
      "ĠKrieg": 3200,
      "Ġerblickt": 3201,
      "ĠKÃ¼nste": 3202,
      "ĠIlios": 3203,
      "ĠOrdnung": 3204,
      "NTIN": 3205,
      "BACC": 3206,
      "PLUTUS": 3207,
      "Vielleicht": 3208,
      "VALENTIN": 3209,
      "ĠLENKER": 3210,
      "Eil": 3211,
      "Empf": 3212,
      "Fl": 3213,
      "Fol": 3214,
      "Freu": 3215,
      "FÃľ": 3216,
      "Halt": 3217,
      "Ir": 3218,
      "Ihn": 3219,
      "Immer": 3220,
      "Kl": 3221,
      "NE": 3222,
      "Nimm": 3223,
      "NAR": 3224,
      "RME": 3225,
      "SP": 3226,
      "Seit": 3227,
      "SEL": 3228,
      "WeiÃŁ": 3229,
      "ZWEI": 3230,
      "ate": 3231,
      "bald": 3232,
      "blichen": 3233,
      "dann": 3234,
      "dige": 3235,
      "ebe": 3236,
      "frei": 3237,
      "frau": 3238,
      "fers": 3239,
      "gi": 3240,
      "hem": 3241,
      "hum": 3242,
      "halten": 3243,
      "iz": 3244,
      "idr": 3245,
      "leu": 3246,
      "niÃŁ": 3247,
      "oh": 3248,
      "rÃ¼ck": 3249,
      "rend": 3250,
      "sheit": 3251,
      "zer": 3252,
      "zÃ¼cken": 3253,
      "Ġel": 3254,
      "ĠDer": 3255,
      "ĠâĢľ": 3256,
      "ĠÃ¤ther": 3257,
      "chst": 3258,
      "ente": 3259,
      "enken": 3260,
      "Ġdeucht": 3261,
      "ĠdrÃ¤ngen": 3262,
      "Ġsor": 3263,
      "ĠsaÃŁ": 3264,
      "ieten": 3265,
      "ieben": 3266,
      "Ġwild": 3267,
      "Ġwilde": 3268,
      "ĠmiÃŁ": 3269,
      "Ġat": 3270,
      "Ã¼m": 3271,
      "Ã¼mm": 3272,
      "Ġgab": 3273,
      "Ġnein": 3274,
      "ĠnÃ¶t": 3275,
      "ĠnÃ¤ch": 3276,
      "Ġhel": 3277,
      "Ã¤glich": 3278,
      "ĠSand": 3279,
      "ĠvÃ¶llig": 3280,
      "Ġben": 3281,
      "ĠblÃ¼": 3282,
      "ĠGau": 3283,
      "ĠGang": 3284,
      "ĠGraus": 3285,
      "teuer": 3286,
      "Ã¶hne": 3287,
      "ĠflÃ¼": 3288,
      "Ġfeuchten": 3289,
      "ĠHaÃŁ": 3290,
      "Ġscheiden": 3291,
      "ĠWal": 3292,
      "ĠWagen": 3293,
      "schuldig": 3294,
      "Ġers": 3295,
      "Ġerwei": 3296,
      "ĠFr": 3297,
      "ĠFur": 3298,
      "ĠFrage": 3299,
      "ĠBest": 3300,
      "ĠBaum": 3301,
      "ĠBahn": 3302,
      "ĠBÃ¶sen": 3303,
      "Ġkund": 3304,
      "ĠkÃ¶st": 3305,
      "ĠMit": 3306,
      "ĠMÃ¼tter": 3307,
      "ĠMÃ¶rder": 3308,
      "ĠTat": 3309,
      "ĠTreu": 3310,
      "ĠToren": 3311,
      "ĠTiefen": 3312,
      "ĠKomm": 3313,
      "ĠKessel": 3314,
      "ĠKreuz": 3315,
      "ĠSchla": 3316,
      "ĠSchwei": 3317,
      "ĠSchaden": 3318,
      "ochten": 3319,
      "ĠLuna": 3320,
      "Ġverehr": 3321,
      "Ġvergessen": 3322,
      "alk": 3323,
      "Ġungest": 3324,
      "reten": 3325,
      "reckt": 3326,
      "Ġsogar": 3327,
      "send": 3328,
      "ftigen": 3329,
      "indet": 3330,
      "ĠRÃ¤t": 3331,
      "ĠRitter": 3332,
      "ĠRauch": 3333,
      "ĠAus": 3334,
      "ĠAbend": 3335,
      "ierig": 3336,
      "Ġwirkt": 3337,
      "Ġanzusch": 3338,
      "berg": 3339,
      "Ã¼rzt": 3340,
      "raben": 3341,
      "rosch": 3342,
      "rossen": 3343,
      "ĠDa": 3344,
      "ĠDing": 3345,
      "ĠDeinen": 3346,
      "Ġsteigen": 3347,
      "rudel": 3348,
      "ĠNicht": 3349,
      "ĠNeig": 3350,
      "ĠVern": 3351,
      "ĠStreit": 3352,
      "ĠStreben": 3353,
      "legen": 3354,
      "leben": 3355,
      "legt": 3356,
      "Erk": 3357,
      "ager": 3358,
      "Ġbeden": 3359,
      "Ġbegl": 3360,
      "ungsvoll": 3361,
      "Ã¤ngen": 3362,
      "Ã¤nglich": 3363,
      "uche": 3364,
      "uchten": 3365,
      "umpf": 3366,
      "umpen": 3367,
      "Ġumw": 3368,
      "Ġhinan": 3369,
      "Ġdessen": 3370,
      "Verm": 3371,
      "CHO": 3372,
      "lage": 3373,
      "rÃ¤un": 3374,
      "rÃ¤chen": 3375,
      "ufe": 3376,
      "SchÃ¶n": 3377,
      "Ġentsp": 3378,
      "Ġentstehn": 3379,
      "Ġsprechen": 3380,
      "ĠErd": 3381,
      "Ã¤tz": 3382,
      "ĠJung": 3383,
      "Ġliegen": 3384,
      "Ġreden": 3385,
      "ĠgewÃ¤hren": 3386,
      "ĠschÃ¶nste": 3387,
      "Ġkeinem": 3388,
      "ĠVerstand": 3389,
      "Ġhoher": 3390,
      "Ġhoffen": 3391,
      "Ġleiden": 3392,
      "Ġleichte": 3393,
      "ienen": 3394,
      "ienst": 3395,
      "ĠUnglÃ¼ck": 3396,
      "ĠWeisheit": 3397,
      "Ã¤len": 3398,
      "rÃ¤nkt": 3399,
      "wartet": 3400,
      "Ġneuer": 3401,
      "samen": 3402,
      "ĠReicht": 3403,
      "Ġgetrost": 3404,
      "ĠheiÃŁe": 3405,
      "Ġfortan": 3406,
      "ĠSchlÃ¤": 3407,
      "ĠSchlacht": 3408,
      "ANZ": 3409,
      "ĠmÃ¶gen": 3410,
      "ĠmÃ¶chten": 3411,
      "ĠmÃ¶glich": 3412,
      "Ġverlor": 3413,
      "ĠUr": 3414,
      "gestellt": 3415,
      "Ġgefallen": 3416,
      "Ġeigner": 3417,
      "ĠfÃ¼hlen": 3418,
      "Ġruhn": 3419,
      "ĠTeufels": 3420,
      "ĠwÃ¤ren": 3421,
      "Ã¼ÃŁe": 3422,
      "Ġschlug": 3423,
      "Ġeurem": 3424,
      "winden": 3425,
      "ĠkÃ¶nnen": 3426,
      "Ġschwere": 3427,
      "ĠflieÃŁen": 3428,
      "Ward": 3429,
      "Ġglaubt": 3430,
      "ĠWohlt": 3431,
      "Ġbisher": 3432,
      "Ġlegt": 3433,
      "Ġlockt": 3434,
      "Ã¤chst": 3435,
      "ĠFeinde": 3436,
      "ĠgrÃ¼nen": 3437,
      "ĠKnie": 3438,
      "Ã¶hnlich": 3439,
      "ĠHeiligt": 3440,
      "Ġergreift": 3441,
      "Ġgoldnen": 3442,
      "Ġernsten": 3443,
      "ĠÃ¼bel": 3444,
      "Ġdroht": 3445,
      "Ġarme": 3446,
      "Ġfremden": 3447,
      "Sprich": 3448,
      "Ġentzwei": 3449,
      "ĠHÃ¤nde": 3450,
      "Kannst": 3451,
      "ĠrÃ¼hm": 3452,
      "ĠstÃ¼rzen": 3453,
      "Ġwandeln": 3454,
      "grunde": 3455,
      "Ġerkennen": 3456,
      "Ġtrennen": 3457,
      "Ġsprichst": 3458,
      "Ã¼chtig": 3459,
      "Ã¶pfe": 3460,
      "ziehn": 3461,
      "Ġbrav": 3462,
      "ĠNarren": 3463,
      "Ġmanches": 3464,
      "ĠGift": 3465,
      "ĠGipfel": 3466,
      "ĠkÃ¼nftig": 3467,
      "ĠPudel": 3468,
      "Ġstrebt": 3469,
      "ĠNÃ¤he": 3470,
      "ĠElement": 3471,
      "ĠÃ¼brig": 3472,
      "ĠgÃ¶tter": 3473,
      "ĠAtreus": 3474,
      "ĠEinsamkeit": 3475,
      "OBERGENERAL": 3476,
      "ĠElekt": 3477,
      "ĠVolke": 3478,
      "atÃ¼rlich": 3479,
      "NARR": 3480,
      "ĠRÃ¤tsel": 3481,
      "ĠNeigung": 3482,
      "Bel": 3483,
      "Beh": 3484,
      "Eh": 3485,
      "Geht": 3486,
      "Halb": 3487,
      "Juch": 3488,
      "Kaum": 3489,
      "KÃ¶nnt": 3490,
      "Lieb": 3491,
      "Mar": 3492,
      "Macht": 3493,
      "MIEN": 3494,
      "SPH": 3495,
      "SOR": 3496,
      "Tritt": 3497,
      "Tief": 3498,
      "UTE": 3499,
      "Wel": 3500,
      "Weit": 3501,
      "Weil": 3502,
      "WÃ¤r": 3503,
      "Zieht": 3504,
      "Zerst": 3505,
      "ais": 3506,
      "abst": 3507,
      "bsch": 3508,
      "beln": 3509,
      "gam": 3510,
      "gne": 3511,
      "hier": 3512,
      "ionen": 3513,
      "latz": 3514,
      "oten": 3515,
      "raÃŁ": 3516,
      "tes": 3517,
      "uh": 3518,
      "ugen": 3519,
      "uge": 3520,
      "wie": 3521,
      "ym": 3522,
      "Ġeit": 3523,
      "ĠÃ¤l": 3524,
      "ĠÃ¤lt": 3525,
      "erb": 3526,
      "Ġdoppelt": 3527,
      "eisa": 3528,
      "Ġsinn": 3529,
      "Ġsinnen": 3530,
      "ieh": 3531,
      "iet": 3532,
      "stem": 3533,
      "stig": 3534,
      "ĠwÃ¤l": 3535,
      "ĠwiÃŁt": 3536,
      "Ġmeiden": 3537,
      "Ã¼nde": 3538,
      "Ġgrenzen": 3539,
      "Ġgolden": 3540,
      "elas": 3541,
      "Ġhold": 3542,
      "ĠhÃ¤ngt": 3543,
      "Ã¤s": 3544,
      "Ã¤mmer": 3545,
      "Ã¤hlen": 3546,
      "Ã¤mpf": 3547,
      "ascht": 3548,
      "ĠSitz": 3549,
      "ĠSonnen": 3550,
      "anzt": 3551,
      "inen": 3552,
      "Ġzar": 3553,
      "irgt": 3554,
      "ĠbrÃ¼": 3555,
      "Ġbildet": 3556,
      "ĠGro": 3557,
      "ĠGuten": 3558,
      "ĠGÃ¤ste": 3559,
      "aunt": 3560,
      "emn": 3561,
      "Ã¶gel": 3562,
      "Ã¶ser": 3563,
      "Ã¶hnen": 3564,
      "Ġzuber": 3565,
      "ĠfÃ¶r": 3566,
      "Ġfragen": 3567,
      "gegeben": 3568,
      "ĠHund": 3569,
      "ĠHÃ¶r": 3570,
      "Ġschlagen": 3571,
      "Ġschreiten": 3572,
      "Ġschreck": 3573,
      "Ġschelten": 3574,
      "are": 3575,
      "Ġeins": 3576,
      "orchen": 3577,
      "ĠWert": 3578,
      "ĠWurz": 3579,
      "schn": 3580,
      "schend": 3581,
      "onner": 3582,
      "ettern": 3583,
      "Ġert": 3584,
      "Ġerreichen": 3585,
      "Ġerpro": 3586,
      "Ġerhebt": 3587,
      "ĠlÃ¼": 3588,
      "Ġleg": 3589,
      "Ġluft": 3590,
      "Ġlesen": 3591,
      "ĠFle": 3592,
      "ĠFrÃ¼": 3593,
      "ĠFÃ¼lle": 3594,
      "ĠFÃ¼ÃŁe": 3595,
      "ĠBar": 3596,
      "ĠBÃ¼r": 3597,
      "ĠBraut": 3598,
      "ckte": 3599,
      "Ġkr": 3600,
      "Ġkla": 3601,
      "Ġkalt": 3602,
      "urf": 3603,
      "ĠMy": 3604,
      "ĠMiÃŁ": 3605,
      "ĠMunde": 3606,
      "ĠThe": 3607,
      "ĠTRIT": 3608,
      "ĠTÃ¶nen": 3609,
      "ĠTÃ¼re": 3610,
      "ĠTinke": 3611,
      "PHI": 3612,
      "ĠKell": 3613,
      "ĠKette": 3614,
      "ĠKlauen": 3615,
      "ĠSchelm": 3616,
      "ĠLam": 3617,
      "ĠLast": 3618,
      "ĠLippen": 3619,
      "ĠLager": 3620,
      "Ġverehren": 3621,
      "Ġverzei": 3622,
      "Ġgehe": 3623,
      "Ġgegeben": 3624,
      "ĠEw": 3625,
      "ĠEuer": 3626,
      "Ġtu": 3627,
      "Ġtoll": 3628,
      "Ġthron": 3629,
      "Ġtiefen": 3630,
      "reib": 3631,
      "reicht": 3632,
      "hler": 3633,
      "ennst": 3634,
      "indern": 3635,
      "indert": 3636,
      "ĠRing": 3637,
      "ĠAgam": 3638,
      "LEBE": 3639,
      "Ġangef": 3640,
      "ĠPel": 3641,
      "ĠPat": 3642,
      "Ã¼rft": 3643,
      "Ã¼rzen": 3644,
      "ragt": 3645,
      "rahlen": 3646,
      "Ġaufger": 3647,
      "Ġunsres": 3648,
      "Ã¶nige": 3649,
      "ĠDÃ¼": 3650,
      "ĠDir": 3651,
      "ĠDrang": 3652,
      "ĠDoppel": 3653,
      "ĠstrÃ¶": 3654,
      "Ġstaunen": 3655,
      "ĠNacken": 3656,
      "ĠStill": 3657,
      "Ã¼cke": 3658,
      "ehret": 3659,
      "AURE": 3660,
      "Ġherzlich": 3661,
      "ump": 3662,
      "endem": 3663,
      "ahre": 3664,
      "Verst": 3665,
      "Ġschweigt": 3666,
      "Ġschwankt": 3667,
      "Ġweichen": 3668,
      "Schl": 3669,
      "rieg": 3670,
      "Ġents": 3671,
      "ĠsprÃ¼": 3672,
      "ĠErst": 3673,
      "ĠOber": 3674,
      "anze": 3675,
      "lieÃŁ": 3676,
      "otschaft": 3677,
      "ĠBlitz": 3678,
      "ĠBlatt": 3679,
      "Ġrette": 3680,
      "ĠÃ¼berst": 3681,
      "allein": 3682,
      "Ġhatte": 3683,
      "ĠVerw": 3684,
      "Ġsamm": 3685,
      "Ġbeide": 3686,
      "Ġleichten": 3687,
      "ĠSchwer": 3688,
      "Ġgenannt": 3689,
      "Alt": 3690,
      "ĠPfad": 3691,
      "ĠprÃ¤cht": 3692,
      "ĠUngeh": 3693,
      "Ã¼tzen": 3694,
      "laub": 3695,
      "Ġvieles": 3696,
      "Ġgeschah": 3697,
      "ĠFreud": 3698,
      "ĠFreunde": 3699,
      "Ã¤nde": 3700,
      "Ã¤nden": 3701,
      "Ġgesund": 3702,
      "Ġgesellt": 3703,
      "ĠGesellschaft": 3704,
      "digt": 3705,
      "rÃ¤nge": 3706,
      "Ġimmerfort": 3707,
      "etzo": 3708,
      "Gebt": 3709,
      "ĠFlÃ¤": 3710,
      "ammelt": 3711,
      "ĠreiÃŁt": 3712,
      "Ġvollen": 3713,
      "ĠToten": 3714,
      "ĠTode": 3715,
      "Ġblenden": 3716,
      "ĠReihe": 3717,
      "ĠArme": 3718,
      "Ġheitern": 3719,
      "ALAURE": 3720,
      "Ġverlieren": 3721,
      "Ġverlangt": 3722,
      "hoben": 3723,
      "Ġgutes": 3724,
      "gestalt": 3725,
      "elegenheit": 3726,
      "SCHEN": 3727,
      "EIDEN": 3728,
      "EILEBE": 3729,
      "weck": 3730,
      "Ġnaht": 3731,
      "Ġnahm": 3732,
      "Ġtiefsten": 3733,
      "Ã¤hrten": 3734,
      "fehlen": 3735,
      "Ġlanger": 3736,
      "Ġlangsam": 3737,
      "ĠKlein": 3738,
      "Ġbeste": 3739,
      "ĠKinder": 3740,
      "ehende": 3741,
      "ĠHerzens": 3742,
      "Ġeuern": 3743,
      "ĠAngesicht": 3744,
      "ĠlÃ¤uft": 3745,
      "ĠBerges": 3746,
      "NEREIDEN": 3747,
      "Ġdarfst": 3748,
      "Ġflieht": 3749,
      "Ġerscheint": 3750,
      "ĠVolkes": 3751,
      "Ġhalbe": 3752,
      "Ġbeglei": 3753,
      "ĠbegrÃ¼": 3754,
      "Ġbrauchen": 3755,
      "Ġgrauen": 3756,
      "Ġgrausen": 3757,
      "Ġloben": 3758,
      "ONEN": 3759,
      "ĠFeindes": 3760,
      "ĠEltern": 3761,
      "Ġverdient": 3762,
      "zeich": 3763,
      "ĠGelieb": 3764,
      "reifach": 3765,
      "ZurÃ¼ck": 3766,
      "ĠPhil": 3767,
      "ĠKrone": 3768,
      "ippe": 3769,
      "Ġentfernt": 3770,
      "ĠHexe": 3771,
      "Ġgemacht": 3772,
      "ĠEntsetzen": 3773,
      "ĠEntzÃ¼cken": 3774,
      "Ġedler": 3775,
      "Ġarm": 3776,
      "ĠglÃ¼ht": 3777,
      "ĠglÃ¼hen": 3778,
      "ĠentzÃ¼ckt": 3779,
      "ĠFremde": 3780,
      "Ġwelchen": 3781,
      "Ġerlangen": 3782,
      "ĠGeheimnis": 3783,
      "Blick": 3784,
      "ĠTrank": 3785,
      "ĠGenuÃŁ": 3786,
      "ĠKohlen": 3787,
      "Ġtraurig": 3788,
      "Ġringsum": 3789,
      "ĠVertrauen": 3790,
      "ĠschÃ¤tzen": 3791,
      "Genug": 3792,
      "iegelt": 3793,
      "ĠPoeten": 3794,
      "Ġedle": 3795,
      "Ġedeln": 3796,
      "ĠTiefe": 3797,
      "Verzeiht": 3798,
      "ĠGespenst": 3799,
      "ĠÃ¤ngstlich": 3800,
      "ĠSoldat": 3801,
      "Ġbringe": 3802,
      "immlischen": 3803,
      "ĠGeschwister": 3804,
      "ĠPapier": 3805,
      "ĠGebÃ¤rde": 3806,
      "Ġbetrogen": 3807,
      "ĠPhantas": 3808,
      "LAMIEN": 3809,
      "ĠfaÃŁte": 3810,
      "schwebt": 3811,
      "ĠTeppich": 3812,
      "BACCALAURE": 3813,
      "SORGE": 3814,
      "ĠTRITONEN": 3815,
      "ĠAgamemn": 3816,
      "EILEBEUTE": 3817,
      "BACCALAUREUS": 3818,
      ".\"": 3819,
      ".âĢĿ": 3820,
      "BIS": 3821,
      "Bringt": 3822,
      "ES": 3823,
      "FA": 3824,
      "FE": 3825,
      "Fort": 3826,
      "Flie": 3827,
      "Gem": 3828,
      "Gut": 3829,
      "Gretchen": 3830,
      "HE": 3831,
      "HRER": 3832,
      "Indessen": 3833,
      "Je": 3834,
      "Jeder": 3835,
      "LIE": 3836,
      "Leb": 3837,
      "MAN": 3838,
      "Mephistopheles": 3839,
      "Nehmt": 3840,
      "Pf": 3841,
      "Ru": 3842,
      "SER": 3843,
      "Vier": 3844,
      "Wem": 3845,
      "asten": 3846,
      "bern": 3847,
      "beh": 3848,
      "digen": 3849,
      "ecken": 3850,
      "fol": 3851,
      "fÃ¼hr": 3852,
      "gern": 3853,
      "geist": 3854,
      "gangen": 3855,
      "gÃ¼lt": 3856,
      "han": 3857,
      "hat": 3858,
      "hauf": 3859,
      "heim": 3860,
      "kte": 3861,
      "krÃ¤": 3862,
      "kus": 3863,
      "kreis": 3864,
      "lt": 3865,
      "laÃŁ": 3866,
      "lassen": 3867,
      "lossen": 3868,
      "mend": 3869,
      "nicht": 3870,
      "nisch": 3871,
      "nacht": 3872,
      "op": 3873,
      "opft": 3874,
      "purg": 3875,
      "rein": 3876,
      "ron": 3877,
      "so": 3878,
      "sig": 3879,
      "telt": 3880,
      "ther": 3881,
      "tausend": 3882,
      "uel": 3883,
      "wo": 3884,
      "willen": 3885,
      "wurf": 3886,
      "ys": 3887,
      "yrin": 3888,
      "zte": 3889,
      "ĠUm": 3890,
      "enei": 3891,
      "eren": 3892,
      "Ġdeckt": 3893,
      "Ġdreifach": 3894,
      "Ġseist": 3895,
      "Ġsorgen": 3896,
      "ĠsÃ¼ÃŁen": 3897,
      "stigen": 3898,
      "stÃ¤ndig": 3899,
      "Ġwagt": 3900,
      "Ġwech": 3901,
      "Ġwidr": 3902,
      "einrich": 3903,
      "Ġmild": 3904,
      "ĠmÃ¤cht": 3905,
      "Ġmunter": 3906,
      "ĠgÃ¶n": 3907,
      "Ġgleichen": 3908,
      "Ġgreift": 3909,
      "elst": 3910,
      "ĠhÃ¤": 3911,
      "Ġheben": 3912,
      "Ġharten": 3913,
      "ĠhieÃŁ": 3914,
      "Ã¤hn": 3915,
      "Ã¤ÃŁt": 3916,
      "ĠSk": 3917,
      "ĠSil": 3918,
      "ĠSehn": 3919,
      "ĠSage": 3920,
      "ĠSachen": 3921,
      "ĠSelbst": 3922,
      "ans": 3923,
      "anten": 3924,
      "Ġzarten": 3925,
      "Ġzeig": 3926,
      "Ġbitte": 3927,
      "Ġbreite": 3928,
      "ĠGleich": 3929,
      "ĠGrauen": 3930,
      "ĠGroÃŁ": 3931,
      "ĠGrenzen": 3932,
      "auert": 3933,
      "Ã¶d": 3934,
      "Ã¶g": 3935,
      "Ġfla": 3936,
      "Ġdergleichen": 3937,
      "ĠHir": 3938,
      "ĠHER": 3939,
      "ĠHÃ¼t": 3940,
      "arm": 3941,
      "arheit": 3942,
      "arrt": 3943,
      "ĠWut": 3944,
      "ĠWeine": 3945,
      "schar": 3946,
      "schet": 3947,
      "schuld": 3948,
      "Ġerd": 3949,
      "Ġlag": 3950,
      "Ġlangen": 3951,
      "Ġlachen": 3952,
      "Ġlaut": 3953,
      "ĠlÃ¶s": 3954,
      "ĠFor": 3955,
      "ĠFol": 3956,
      "ĠBrÃ¼": 3957,
      "ĠBett": 3958,
      "ĠBrauch": 3959,
      "ĠBotschaft": 3960,
      "cke": 3961,
      "Ġkehren": 3962,
      "uren": 3963,
      "ĠMes": 3964,
      "ĠMet": 3965,
      "ĠMitte": 3966,
      "ĠMord": 3967,
      "ĠTit": 3968,
      "ĠTausen": 3969,
      "ĠKÃ¶nige": 3970,
      "ĠSchÃ¤": 3971,
      "ĠSchne": 3972,
      "ĠSchaus": 3973,
      "ĠSchutz": 3974,
      "ĠLaub": 3975,
      "ĠLeuten": 3976,
      "ĠLippe": 3977,
      "Ġversen": 3978,
      "Ġverpf": 3979,
      "STER": 3980,
      "alen": 3981,
      "lichste": 3982,
      "Ġgeden": 3983,
      "Ġgekommen": 3984,
      "derb": 3985,
      "dernd": 3986,
      "ĠEben": 3987,
      "ĠEigen": 3988,
      "ĠErin": 3989,
      "atzen": 3990,
      "Ġtat": 3991,
      "Ġtust": 3992,
      "Ġtrifft": 3993,
      "Ġtrock": 3994,
      "reien": 3995,
      "reiche": 3996,
      "Ġdumm": 3997,
      "DieÃŁ": 3998,
      "enne": 3999,
      "ĠRau": 4000,
      "ĠRÃ¶": 4001,
      "ĠRuf": 4002,
      "ĠRÃ¤u": 4003,
      "ĠAp": 4004,
      "ĠAug": 4005,
      "ĠAdl": 4006,
      "Ġanzuf": 4007,
      "ehe": 4008,
      "ehm": 4009,
      "ĠPossen": 4010,
      "ĠPerl": 4011,
      "ĠPerg": 4012,
      "raten": 4013,
      "Ġjust": 4014,
      "Ġjetzo": 4015,
      "olten": 4016,
      "olzen": 4017,
      "achten": 4018,
      "ĠDinge": 4019,
      "ĠDonner": 4020,
      "raum": 4021,
      "raucht": 4022,
      "Ġstra": 4023,
      "Ġstumm": 4024,
      "ruck": 4025,
      "ĠNun": 4026,
      "ĠNorden": 4027,
      "ĠNase": 4028,
      "ĠZier": 4029,
      "ĠZweck": 4030,
      "ĠStÃ¤t": 4031,
      "ĠStrÃ¶": 4032,
      "ĠStock": 4033,
      "ĠStufen": 4034,
      "nend": 4035,
      "Ã¼ckte": 4036,
      "Erinn": 4037,
      "aglich": 4038,
      "Ġbeweg": 4039,
      "ĠHerd": 4040,
      "ums": 4041,
      "unders": 4042,
      "entlich": 4043,
      "ilf": 4044,
      "ĠvorwÃ¤rts": 4045,
      "ahrung": 4046,
      "rÃ¼mm": 4047,
      "Verk": 4048,
      "Verschw": 4049,
      "Ã¤rm": 4050,
      "Unter": 4051,
      "Unser": 4052,
      "Ġschwe": 4053,
      "Ġschwank": 4054,
      "Ġweich": 4055,
      "Ġweite": 4056,
      "ĠspÃ¤t": 4057,
      "Ġwohlgem": 4058,
      "Ã¤tig": 4059,
      "ĠJu": 4060,
      "ĠJungen": 4061,
      "ĠBlÃ¤t": 4062,
      "zust": 4063,
      "weise": 4064,
      "Ġrat": 4065,
      "Ã¼nscht": 4066,
      "Ġgeworden": 4067,
      "ĠgewÃ¶hnt": 4068,
      "geln": 4069,
      "Ġwillig": 4070,
      "ĠGlauben": 4071,
      "Ġedel": 4072,
      "Ġkomme": 4073,
      "ppe": 4074,
      "Ã¼hle": 4075,
      "Ã¼hlt": 4076,
      "inger": 4077,
      "Ġsteckt": 4078,
      "Ġstehst": 4079,
      "ĠManne": 4080,
      "ĠSpeise": 4081,
      "ĠPforte": 4082,
      "ulen": 4083,
      "MARSCH": 4084,
      "Ġpro": 4085,
      "Ġplagen": 4086,
      "Ġpreisen": 4087,
      "ĠUnheil": 4088,
      "ĠUnbek": 4089,
      "ĠĠĠĠĠĠĠĠĠĠĠĠĠĠĠ": 4090,
      "Ġgesehen": 4091,
      "Ġgeblieben": 4092,
      "Ġneuem": 4093,
      "ĠFlug": 4094,
      "ĠGewicht": 4095,
      "ammert": 4096,
      "Ġreicht": 4097,
      "Meinen": 4098,
      "astet": 4099,
      "Ġblick": 4100,
      "Ġblickt": 4101,
      "ĠHÃ¶hen": 4102,
      "ĠHÃ¶hle": 4103,
      "ĠReihen": 4104,
      "ĠReiche": 4105,
      "CHORUS": 4106,
      "CHORFÃľ": 4107,
      "quick": 4108,
      "ĠHauch": 4109,
      "Ġgelungen": 4110,
      "Ġbereiten": 4111,
      "ĠSchluchten": 4112,
      "ĠSchmach": 4113,
      "ĠSchmeich": 4114,
      "ANA": 4115,
      "Ġgefunden": 4116,
      "Ġeign": 4117,
      "ĠBucht": 4118,
      "ĠBlicken": 4119,
      "Ġbesond": 4120,
      "ĠVaterland": 4121,
      "Ġgehst": 4122,
      "ĠKlug": 4123,
      "ĠKleinen": 4124,
      "ĠKlyt": 4125,
      "Ġfrohen": 4126,
      "volle": 4127,
      "ĠBogen": 4128,
      "Ġherrliche": 4129,
      "klang": 4130,
      "Ġverborgen": 4131,
      "ĠAlte": 4132,
      "Ġeuren": 4133,
      "Ġdrang": 4134,
      "Ġerfreut": 4135,
      "eimniÃŁ": 4136,
      "ĠMeere": 4137,
      "ĠGrunde": 4138,
      "gnÃ¼gen": 4139,
      "haftig": 4140,
      "ĠFreundes": 4141,
      "ĠSchÃ¶nen": 4142,
      "Ġfliegen": 4143,
      "ĠBruders": 4144,
      "ĠkÃ¼hnen": 4145,
      "Ġgraut": 4146,
      "Ġlebe": 4147,
      "ĠVorwurf": 4148,
      "ĠhÃ¶chste": 4149,
      "antel": 4150,
      "ĠgrÃ¼n": 4151,
      "ĠKnabe": 4152,
      "Ġdarum": 4153,
      "Ġzweiten": 4154,
      "Ġwahrlich": 4155,
      "ĠGeld": 4156,
      "ĠMenelas": 4157,
      "Ġbedarf": 4158,
      "Ġvernommen": 4159,
      "Ġvernehmen": 4160,
      "ĠWirt": 4161,
      "ĠRechts": 4162,
      "ĠKaisers": 4163,
      "Ġrauben": 4164,
      "Ġlaufen": 4165,
      "Ġversteht": 4166,
      "Ġtreue": 4167,
      "Ġentflie": 4168,
      "ĠFlÃ¼cht": 4169,
      "ĠTropfen": 4170,
      "ĠTroja": 4171,
      "Ġarmen": 4172,
      "Ġarmer": 4173,
      "Ġempfangen": 4174,
      "Ġetwa": 4175,
      "Ġleuchtend": 4176,
      "Willst": 4177,
      "Willkommen": 4178,
      "Ġnehm": 4179,
      "ĠScharen": 4180,
      "Ġbekannt": 4181,
      "GewiÃŁ": 4182,
      "Ġaltes": 4183,
      "Ã¤mpft": 4184,
      "Ã¤mnest": 4185,
      "Ġbrennen": 4186,
      "ĠEnkel": 4187,
      "ĠErdens": 4188,
      "Ġschwarz": 4189,
      "ĠGras": 4190,
      "ĠWerke": 4191,
      "ĠSchÃ¤tzen": 4192,
      "ĠParad": 4193,
      "ĠbewuÃŁt": 4194,
      "Ġbrachte": 4195,
      "FÃ¼hlt": 4196,
      "ĠWille": 4197,
      "ĠSchrein": 4198,
      "RITTER": 4199,
      "willig": 4200,
      "ĠkÃ¼nft": 4201,
      "ĠElemente": 4202,
      "hafter": 4203,
      "ĠdÃ¼ster": 4204,
      "Ġdrinnen": 4205,
      "ĠsÃ¼ÃŁe": 4206,
      "Ġahnungsvoll": 4207,
      "ĠWege": 4208,
      "Ġbequemen": 4209,
      "Ġergetzt": 4210,
      "Ġungeheu": 4211,
      "Ġungeheuer": 4212,
      "Ġumsonst": 4213,
      "ĠGespenster": 4214,
      "falls": 4215,
      "Ġhieher": 4216,
      "ĠTrÃ¤nen": 4217,
      "ĠInnern": 4218,
      "ERZBIS": 4219,
      "Bedenkt": 4220,
      "ĠGeiste": 4221,
      "ĠfrÃ¶hlich": 4222,
      "Ġvollbracht": 4223,
      "ĠgrÃ¤ÃŁlich": 4224,
      "Ġsterben": 4225,
      "Ġerquickt": 4226,
      "ĠBehagen": 4227,
      "Ġkurze": 4228,
      "Ġversteckt": 4229,
      "Ġjeglicher": 4230,
      "ĠWissenschaft": 4231,
      "ĠSchreckens": 4232,
      "Ġverfluchte": 4233,
      "ĠVÃ¶lker": 4234,
      "gebornen": 4235,
      "Bedarf": 4236,
      "leun": 4237,
      "ĠFurien": 4238,
      "ĠkÃ¶stlich": 4239,
      "CHOF": 4240,
      "ĠgÃ¶ttergleich": 4241,
      "ĠPhantasie": 4242,
      "HRERIN": 4243,
      "LIESCHEN": 4244,
      "purgis": 4245,
      "eneios": 4246,
      "ĠHERR": 4247,
      "ĠSchauspiel": 4248,
      "ĠStÃ¤tte": 4249,
      "MARSCHAL": 4250,
      "CHORFÃľHRERIN": 4251,
      "ĠKlytÃ¤mnest": 4252,
      "ERZBISCHOF": 4253,
      "ADEN": 4254,
      "Brin": 4255,
      "Bleibt": 4256,
      "Darf": 4257,
      "Dringt": 4258,
      "DrÃ¤ngt": 4259,
      "DÃ¼rft": 4260,
      "ETI": 4261,
      "Fel": 4262,
      "Frei": 4263,
      "Get": 4264,
      "GÃ¶t": 4265,
      "Ho": 4266,
      "HÃ¶": 4267,
      "Heute": 4268,
      "HÃ¤tt": 4269,
      "Jen": 4270,
      "KANZ": 4271,
      "Krieg": 4272,
      "Leicht": 4273,
      "LICH": 4274,
      "MÃĦ": 4275,
      "MON": 4276,
      "MANT": 4277,
      "NK": 4278,
      "Sel": 4279,
      "Trau": 4280,
      "UR": 4281,
      "Voll": 4282,
      "XAG": 4283,
      "Zw": 4284,
      "Zer": 4285,
      "ahlen": 4286,
      "brau": 4287,
      "bogen": 4288,
      "doch": 4289,
      "durch": 4290,
      "drossen": 4291,
      "flich": 4292,
      "fern": 4293,
      "fnen": 4294,
      "fÃ¼ÃŁ": 4295,
      "fahrt": 4296,
      "gelt": 4297,
      "gsten": 4298,
      "gÃ¶t": 4299,
      "gott": 4300,
      "gsam": 4301,
      "hes": 4302,
      "hte": 4303,
      "hand": 4304,
      "hÃ¶r": 4305,
      "halb": 4306,
      "iden": 4307,
      "lo": 4308,
      "litz": 4309,
      "mÃ¼": 4310,
      "mÃ¤cht": 4311,
      "ost": 4312,
      "oÃŁen": 4313,
      "ogel": 4314,
      "pten": 4315,
      "pter": 4316,
      "rigen": 4317,
      "ritter": 4318,
      "sich": 4319,
      "sern": 4320,
      "satz": 4321,
      "swÃ¼rdig": 4322,
      "sberg": 4323,
      "tre": 4324,
      "ummer": 4325,
      "upp": 4326,
      "utend": 4327,
      "wund": 4328,
      "yg": 4329,
      "zet": 4330,
      "Ġte": 4331,
      "ĠCHOR": 4332,
      "erinnen": 4333,
      "Ġdringen": 4334,
      "Ġdient": 4335,
      "eider": 4336,
      "eiÃŁen": 4337,
      "Ġsatt": 4338,
      "Ġsendet": 4339,
      "ĠsÃ¤us": 4340,
      "ĠsÃ¤mt": 4341,
      "ieder": 4342,
      "iehlt": 4343,
      "nder": 4344,
      "stein": 4345,
      "stÃ¼ck": 4346,
      "stige": 4347,
      "Ġwur": 4348,
      "ĠwuÃŁ": 4349,
      "Ġwalten": 4350,
      "ĠwuÃŁt": 4351,
      "Ġwechsel": 4352,
      "einigt": 4353,
      "Ġmun": 4354,
      "ĠmÃ¤ÃŁig": 4355,
      "Ã¼ten": 4356,
      "Ã¼llen": 4357,
      "Ġgeist": 4358,
      "ĠgÃ¤b": 4359,
      "Ġur": 4360,
      "ĠnÃ¤h": 4361,
      "Ġheit": 4362,
      "Ġhart": 4363,
      "ĠhÃ¤ÃŁ": 4364,
      "Ġhegt": 4365,
      "Ã¤den": 4366,
      "Ã¤llen": 4367,
      "Ã¤ftig": 4368,
      "asche": 4369,
      "ĠSaft": 4370,
      "ĠSÃ¼nd": 4371,
      "ĠSache": 4372,
      "ĠSatan": 4373,
      "ĠSegel": 4374,
      "Ġzog": 4375,
      "irbt": 4376,
      "Ġbange": 4377,
      "Ġbreiten": 4378,
      "ĠbÃ¶sen": 4379,
      "ĠbÃ¶se": 4380,
      "ĠbÃ¶ser": 4381,
      "ĠGÃ¤r": 4382,
      "ĠGreis": 4383,
      "ĠGatten": 4384,
      "ĠGelegenheit": 4385,
      "hrist": 4386,
      "aute": 4387,
      "emmt": 4388,
      "Ã¶w": 4389,
      "ichtung": 4390,
      "Ġzuf": 4391,
      "Ġzun": 4392,
      "Ġzugrunde": 4393,
      "Ġfeu": 4394,
      "Ġfangen": 4395,
      "Ġfrechen": 4396,
      "Ġfallen": 4397,
      "Ġfasse": 4398,
      "Ġfrech": 4399,
      "gep": 4400,
      "gehen": 4401,
      "gewei": 4402,
      "Ġderen": 4403,
      "ĠHier": 4404,
      "ĠHolz": 4405,
      "ĠHals": 4406,
      "ĠschÃ¤r": 4407,
      "Ġschaden": 4408,
      "Ġschickt": 4409,
      "Ġscheuen": 4410,
      "arb": 4411,
      "ĠWÃ¼n": 4412,
      "ĠWelch": 4413,
      "ĠWechsel": 4414,
      "Ġerfl": 4415,
      "Ġlehren": 4416,
      "ĠFe": 4417,
      "ĠFie": 4418,
      "ĠFAUST": 4419,
      "ĠFrev": 4420,
      "ĠFrucht": 4421,
      "ĠBur": 4422,
      "ĠBal": 4423,
      "ĠBeute": 4424,
      "ĠBette": 4425,
      "ĠBande": 4426,
      "ĠBesten": 4427,
      "ĠBÃ¤ume": 4428,
      "ĠkÃ¼nst": 4429,
      "urst": 4430,
      "ĠMir": 4431,
      "ĠMÃ¤r": 4432,
      "ĠMus": 4433,
      "ĠMasse": 4434,
      "ĠTrie": 4435,
      "ĠThoas": 4436,
      "tert": 4437,
      "ĠKanz": 4438,
      "ĠSchaum": 4439,
      "ĠSchalk": 4440,
      "ĠLos": 4441,
      "ĠLange": 4442,
      "ĠLinden": 4443,
      "ĠLÃ¤nder": 4444,
      "Ġverj": 4445,
      "Ġveren": 4446,
      "alan": 4447,
      "alus": 4448,
      "Ġgebt": 4449,
      "Ġgebe": 4450,
      "Ġgequ": 4451,
      "Ġgestehn": 4452,
      "Ġdenen": 4453,
      "Ġunend": 4454,
      "Ġunges": 4455,
      "Ġungew": 4456,
      "ĠunmÃ¶glich": 4457,
      "retend": 4458,
      "atzt": 4459,
      "Ġtru": 4460,
      "ĠtÃ¤glich": 4461,
      "Ġtanzt": 4462,
      "reist": 4463,
      "reife": 4464,
      "ĠRo": 4465,
      "ĠRaben": 4466,
      "ĠRaub": 4467,
      "ĠRiegel": 4468,
      "ĠRichter": 4469,
      "ĠRosen": 4470,
      "ĠRasen": 4471,
      "ĠRolle": 4472,
      "ĠRiesen": 4473,
      "ĠAch": 4474,
      "ĠAst": 4475,
      "ĠAben": 4476,
      "ĠAdern": 4477,
      "LEMU": 4478,
      "Ġwirft": 4479,
      "Ġwirken": 4480,
      "Ġangeh": 4481,
      "ĠPan": 4482,
      "ĠPeneios": 4483,
      "Ġaufget": 4484,
      "Dergleichen": 4485,
      "leise": 4486,
      "roffen": 4487,
      "Ã¶ne": 4488,
      "Ġjem": 4489,
      "achs": 4490,
      "ĠDen": 4491,
      "ĠDoch": 4492,
      "ĠDingen": 4493,
      "ĠDreif": 4494,
      "ĠDREI": 4495,
      "ĠDrachen": 4496,
      "Ġstei": 4497,
      "ĠstÃ¤r": 4498,
      "rumm": 4499,
      "ĠNur": 4500,
      "Ġmeint": 4501,
      "ĠZe": 4502,
      "ĠZuf": 4503,
      "ĠZimmer": 4504,
      "ĠZorn": 4505,
      "ĠStich": 4506,
      "ĠStÃ¤d": 4507,
      "ĠStaub": 4508,
      "ĠStrand": 4509,
      "ĠStroh": 4510,
      "Ġwohin": 4511,
      "ehrten": 4512,
      "leg": 4513,
      "Erz": 4514,
      "Erster": 4515,
      "Erwar": 4516,
      "Ġherange": 4517,
      "Ġbewahrt": 4518,
      "Ġbefehlen": 4519,
      "Ã¤ne": 4520,
      "bew": 4521,
      "Einmal": 4522,
      "Ġumgeben": 4523,
      "ickelt": 4524,
      "Ġhingegeben": 4525,
      "amt": 4526,
      "Ġvoran": 4527,
      "rÃ¼b": 4528,
      "rÃ¼nden": 4529,
      "euchtet": 4530,
      "Verh": 4531,
      "Versp": 4532,
      "Siehst": 4533,
      "CHÃĸ": 4534,
      "Ġwarst": 4535,
      "lagt": 4536,
      "Ġweicht": 4537,
      "Ġweise": 4538,
      "rÃ¤ul": 4539,
      "Schafft": 4540,
      "rieÃŁen": 4541,
      "Ġentst": 4542,
      "Ġentsch": 4543,
      "Ġentwei": 4544,
      "ĠdafÃ¼r": 4545,
      "istall": 4546,
      "ĠErz": 4547,
      "ORAS": 4548,
      "ĠBlock": 4549,
      "Denkt": 4550,
      "Ġrichten": 4551,
      "ĠÃ¼berf": 4552,
      "Ġdurchdrungen": 4553,
      "Ġwillen": 4554,
      "allend": 4555,
      "lÃ¼gel": 4556,
      "abyrin": 4557,
      "Ġhohlen": 4558,
      "Ġhohem": 4559,
      "Ġklang": 4560,
      "Ġkleinen": 4561,
      "ĠSchwe": 4562,
      "ĠSpart": 4563,
      "ĠSpaten": 4564,
      "ĠPfaffen": 4565,
      "ĠPfade": 4566,
      "ĠpaÃŁt": 4567,
      "Ġgleichem": 4568,
      "ersp": 4569,
      "Ã¼tz": 4570,
      "Ã¼tze": 4571,
      "ĠWeiber": 4572,
      "gerafft": 4573,
      "Ã¤ndlich": 4574,
      "Ã¤ndigt": 4575,
      "ĠMenschheit": 4576,
      "Ġgesp": 4577,
      "Ġgespr": 4578,
      "gesang": 4579,
      "Ġgebunden": 4580,
      "ĠgebÃ¼hrt": 4581,
      "rÃ¤nken": 4582,
      "ĠGeschle": 4583,
      "Ġabzu": 4584,
      "ĠFlucht": 4585,
      "ĠFlÃ¤mm": 4586,
      "Ġfrische": 4587,
      "ammen": 4588,
      "Ġvolle": 4589,
      "Ġvollenden": 4590,
      "Ġblitzt": 4591,
      "ĠReise": 4592,
      "spruch": 4593,
      "CHORETI": 4594,
      "ÃľN": 4595,
      "glein": 4596,
      "glÃ¤n": 4597,
      "glanz": 4598,
      "Ġheilige": 4599,
      "Ġgethan": 4600,
      "Ġgelten": 4601,
      "Ġheim": 4602,
      "Ġbleibst": 4603,
      "ĠZeitvert": 4604,
      "ĠSchlund": 4605,
      "ĠSchloÃŁ": 4606,
      "ĠSchmaus": 4607,
      "Ġverschm": 4608,
      "Ġschaun": 4609,
      "ĠUfers": 4610,
      "ĠGottes": 4611,
      "ĠGottheit": 4612,
      "gestalten": 4613,
      "Ġgefangen": 4614,
      "ĠgefÃ¼hrt": 4615,
      "ĠGefang": 4616,
      "Ġbesp": 4617,
      "ĠbesaÃŁ": 4618,
      "Ġtiefe": 4619,
      "Ġstiller": 4620,
      "ĠzurÃ¼cke": 4621,
      "ĠgehÃ¶r": 4622,
      "Ġgeheimnisvoll": 4623,
      "ĠKleine": 4624,
      "Entz": 4625,
      "rift": 4626,
      "GEIST": 4627,
      "GEMU": 4628,
      "ĠBoten": 4629,
      "ĠBock": 4630,
      "ĠKindern": 4631,
      "ĠfÃ¼hrte": 4632,
      "PHORKYADEN": 4633,
      "ĠdrÃ¼ckt": 4634,
      "ĠAnblick": 4635,
      "ĠAnfang": 4636,
      "Ġerfreuen": 4637,
      "Ġgering": 4638,
      "Ġgeraten": 4639,
      "ĠThy": 4640,
      "ĠwÃ¤hn": 4641,
      "ĠwÃ¤chst": 4642,
      "ĠglÃ¼cken": 4643,
      "Ġfreuen": 4644,
      "Ġzerr": 4645,
      "ĠGruft": 4646,
      "ĠGebild": 4647,
      "INXE": 4648,
      "schlossen": 4649,
      "ĠkÃ¶nn": 4650,
      "Ã¤umen": 4651,
      "Ġschweren": 4652,
      "Herein": 4653,
      "wegs": 4654,
      "ĠSchÃ¶nste": 4655,
      "ĠflieÃŁt": 4656,
      "ĠVolks": 4657,
      "ĠkÃ¼ssen": 4658,
      "ÃĦR": 4659,
      "Ġgrausam": 4660,
      "Ġholdes": 4661,
      "Ġlock": 4662,
      "Ġstarren": 4663,
      "Ġwenigstens": 4664,
      "unkelt": 4665,
      "ĠNachwelt": 4666,
      "Ġrote": 4667,
      "ĠwiderwÃ¤rt": 4668,
      "etwillen": 4669,
      "ĠĠĠĠĠĠĠĠĠĠĠĠĠĠĠĠĠĠĠ": 4670,
      "ĠĠĠĠĠĠĠĠĠĠĠĠĠĠĠĠĠĠĠĠĠĠĠ": 4671,
      "ĠKranz": 4672,
      "HOF": 4673,
      "ĠGeduld": 4674,
      "ĠGedrÃ¤nge": 4675,
      "Ġsolches": 4676,
      "Ġsagst": 4677,
      "ĠWieder": 4678,
      "ĠWiesen": 4679,
      "Ġtreuen": 4680,
      "Ġfolge": 4681,
      "ĠverkÃ¼nd": 4682,
      "Ġvermag": 4683,
      "ĠDieb": 4684,
      "ĠglÃ¼hend": 4685,
      "inks": 4686,
      "Ġfremd": 4687,
      "Ġquillt": 4688,
      "ĠAugenblicke": 4689,
      "ĠWiderwillen": 4690,
      "sinnig": 4691,
      "ĠEurer": 4692,
      "ĠstÃ¼rzt": 4693,
      "riebnen": 4694,
      "Ġehrnen": 4695,
      "ĠwÃ¼sten": 4696,
      "ĠwÃ¼ÃŁt": 4697,
      "Ġwandelt": 4698,
      "Ã¤mme": 4699,
      "etterl": 4700,
      "ĠTiere": 4701,
      "ĠSchiffe": 4702,
      "appen": 4703,
      "Versuch": 4704,
      "Ã¼ttert": 4705,
      "Ġkennst": 4706,
      "Hinauf": 4707,
      "garete": 4708,
      "sichtig": 4709,
      "Ġknie": 4710,
      "ĠParis": 4711,
      "Ġwollten": 4712,
      "Ġgrade": 4713,
      "ĠGemahl": 4714,
      "ĠschÃ¼tzt": 4715,
      "ĠTrunk": 4716,
      "ĠKnechte": 4717,
      "Ġunbeg": 4718,
      "Ġtrinkt": 4719,
      "Ġtrinke": 4720,
      "ĠAntlitz": 4721,
      "Ġhoffe": 4722,
      "Ġsinkt": 4723,
      "ĠhÃ¼bsch": 4724,
      "Liebe": 4725,
      "ĠAbgrund": 4726,
      "ecke": 4727,
      "Ġseltsam": 4728,
      "Ġlustigen": 4729,
      "Ġverschlingen": 4730,
      "ĠglÃ¤nzen": 4731,
      "ĠGriechenland": 4732,
      "uchend": 4733,
      "ĠdÃ¼stern": 4734,
      "Ġmachst": 4735,
      "Ġahnet": 4736,
      "Ġunverdrossen": 4737,
      "ĠSeelen": 4738,
      "Zweiter": 4739,
      "Verzeih": 4740,
      "Ġgewaltsam": 4741,
      "Ġnimmermehr": 4742,
      "Ġdrauf": 4743,
      "ĠdrauÃŁen": 4744,
      "ĠgrÃ¶ÃŁten": 4745,
      "ĠSaal": 4746,
      "ĠMoos": 4747,
      "ĠKirche": 4748,
      "Ġfalschen": 4749,
      "ĠHinter": 4750,
      "ĠFinsternis": 4751,
      "ĠBÃ¤che": 4752,
      "Ġspielen": 4753,
      "Ġwiederholt": 4754,
      "ĠGewÃ¶lbe": 4755,
      "MÃ¶cht": 4756,
      "Ġdankbar": 4757,
      "Ġdunkeln": 4758,
      "Ġflammt": 4759,
      "ĠMÃ¤g": 4760,
      "Ġtapfer": 4761,
      "ĠDianens": 4762,
      "ĠStirn": 4763,
      "ĠVerdruÃŁ": 4764,
      "ĠbetrÃ¼gen": 4765,
      "Ġmerkt": 4766,
      "Ġhielt": 4767,
      "Ã¤stchen": 4768,
      "ĠKÃ¶rper": 4769,
      "Ġentbehren": 4770,
      "swert": 4771,
      "Ġehrenvoll": 4772,
      "Ġzierlich": 4773,
      "ĠHarnisch": 4774,
      "ĠFleiÃŁ": 4775,
      "ĠSchultern": 4776,
      "Ġprangt": 4777,
      "ĠHelena": 4778,
      "ĠInnerstes": 4779,
      "RMEL": 4780,
      "SPINX": 4781,
      "ZWEITER": 4782,
      "gibt": 4783,
      "Ġelend": 4784,
      "ĠnÃ¶tig": 4785,
      "Ġhelfen": 4786,
      "ĠVernunft": 4787,
      "ĠbeglÃ¼ckt": 4788,
      "ĠHeiligthum": 4789,
      "ĠElektra": 4790,
      "ĠFrÃ¼hl": 4791,
      "ĠLampe": 4792,
      "Ġaufgeregt": 4793,
      "Ġwidrig": 4794,
      "ĠSilber": 4795,
      "ĠRÃ¤uber": 4796,
      "ANAXAG": 4797,
      "Ġeignem": 4798,
      "purgisnacht": 4799,
      "MARSCHALK": 4800,
      "KANZLER": 4801,
      "MANTO": 4802,
      "Ġwurden": 4803,
      "ĠTriebe": 4804,
      "ĠDreifuÃŁ": 4805,
      "rÃ¤ulein": 4806,
      "ĠBlocksberg": 4807,
      "ĠFlÃ¤mmchen": 4808,
      "CHORETIDE": 4809,
      "ĠZeitvertreib": 4810,
      "GEMURMEL": 4811,
      "ANAXAGORAS": 4812,
      "!...": 4813,
      "Best": 4814,
      "BAU": 4815,
      "BEN": 4816,
      "CUS": 4817,
      "CIS": 4818,
      "DI": 4819,
      "Dritter": 4820,
      "Frau": 4821,
      "FrÃ¼": 4822,
      "FÃ¼n": 4823,
      "FÃ¼hr": 4824,
      "Fast": 4825,
      "Frisch": 4826,
      "Gott": 4827,
      "GroÃŁ": 4828,
      "GREI": 4829,
      "Glaub": 4830,
      "Haben": 4831,
      "HÃ¶rt": 4832,
      "Indem": 4833,
      "Kn": 4834,
      "Keine": 4835,
      "Klein": 4836,
      "Le": 4837,
      "LÃ¤ÃŁt": 4838,
      "Mach": 4839,
      "MiÃŁ": 4840,
      "MuÃŁt": 4841,
      "MÃ¼ÃŁt": 4842,
      "NO": 4843,
      "Ne": 4844,
      "Nacht": 4845,
      "OS": 4846,
      "PATER": 4847,
      "Rei": 4848,
      "Rette": 4849,
      "Rings": 4850,
      "RGER": 4851,
      "Recht": 4852,
      "SE": 4853,
      "Sa": 4854,
      "TR": 4855,
      "UN": 4856,
      "Wald": 4857,
      "XEN": 4858,
      "YNK": 4859,
      "ZMEISTER": 4860,
      "Zieh": 4861,
      "aos": 4862,
      "bo": 4863,
      "blÃ¼": 4864,
      "ct": 4865,
      "cen": 4866,
      "dung": 4867,
      "drin": 4868,
      "fet": 4869,
      "ftet": 4870,
      "fÃ¤lt": 4871,
      "furcht": 4872,
      "fÃ¼hren": 4873,
      "gten": 4874,
      "gab": 4875,
      "hern": 4876,
      "hang": 4877,
      "ia": 4878,
      "ipfel": 4879,
      "kr": 4880,
      "klei": 4881,
      "loÃŁ": 4882,
      "mor": 4883,
      "nÃ¼tz": 4884,
      "ohlen": 4885,
      "pit": 4886,
      "pur": 4887,
      "paar": 4888,
      "rten": 4889,
      "rennt": 4890,
      "rannt": 4891,
      "sb": 4892,
      "sur": 4893,
      "sse": 4894,
      "sucht": 4895,
      "tritt": 4896,
      "ub": 4897,
      "upft": 4898,
      "weil": 4899,
      "woll": 4900,
      "wider": 4901,
      "zieht": 4902,
      "zeug": 4903,
      "Ġ'": 4904,
      "ĠrÃ¤chen": 4905,
      "erf": 4906,
      "erben": 4907,
      "Ġdicht": 4908,
      "Ġdam": 4909,
      "Ġdacht": 4910,
      "ĠdÃ¤cht": 4911,
      "eisen": 4912,
      "Ġse": 4913,
      "Ġsuch": 4914,
      "Ġsetzen": 4915,
      "iehl": 4916,
      "iese": 4917,
      "ieÃŁen": 4918,
      "ieÃŁt": 4919,
      "iedet": 4920,
      "stag": 4921,
      "strom": 4922,
      "strahl": 4923,
      "Ġwor": 4924,
      "Ġwage": 4925,
      "ĠwÃ¼ÃŁ": 4926,
      "Ġwuchs": 4927,
      "espe": 4928,
      "esseln": 4929,
      "Ġmor": 4930,
      "Ġmut": 4931,
      "Ġachten": 4932,
      "Ġabend": 4933,
      "Ã¼ben": 4934,
      "Ã¼pf": 4935,
      "Ã¼sten": 4936,
      "Ã¼hm": 4937,
      "Ã¼glich": 4938,
      "Ã¼pft": 4939,
      "Ġindes": 4940,
      "Ġglei": 4941,
      "Ġgreu": 4942,
      "Ġgrin": 4943,
      "Ġgott": 4944,
      "ĠgÃ¶nnt": 4945,
      "Ġgriff": 4946,
      "Ġgilt": 4947,
      "Ġgabst": 4948,
      "elph": 4949,
      "Ġnacht": 4950,
      "ĠnatÃ¼rlich": 4951,
      "Ġhe": 4952,
      "Ġhelle": 4953,
      "Ġhellen": 4954,
      "Ġhandeln": 4955,
      "ĠhÃ¤ngen": 4956,
      "Ã¤ft": 4957,
      "Ã¤hl": 4958,
      "Ã¤uf": 4959,
      "Ã¤ger": 4960,
      "Ã¤hnen": 4961,
      "Ã¤fte": 4962,
      "Ã¤hlt": 4963,
      "ĠSomm": 4964,
      "ĠSeiten": 4965,
      "ĠSorgen": 4966,
      "ĠSitte": 4967,
      "ĠSÃ¼nden": 4968,
      "ĠSessel": 4969,
      "anen": 4970,
      "inx": 4971,
      "Ġzeigen": 4972,
      "ird": 4973,
      "iren": 4974,
      "irge": 4975,
      "Ġbat": 4976,
      "ĠbrÃ¤": 4977,
      "ĠbÃ¶s": 4978,
      "ĠGol": 4979,
      "hrauch": 4980,
      "aul": 4981,
      "aucht": 4982,
      "genommen": 4983,
      "Ã¶mm": 4984,
      "ĠdieÃŁ": 4985,
      "Ġzuckt": 4986,
      "Ġzuhauf": 4987,
      "Ġfert": 4988,
      "ĠHallen": 4989,
      "ĠHimmlischen": 4990,
      "ĠHeinrich": 4991,
      "Ġschein": 4992,
      "ĠschlÃ¼": 4993,
      "Ġschief": 4994,
      "Ġschleichen": 4995,
      "Ġschuldig": 4996,
      "Ġschilt": 4997,
      "Ġschreitet": 4998,
      "ĠschlieÃŁt": 4999,
      "Ġscheinst": 5000,
      "arum": 5001,
      "arfen": 5002,
      "arren": 5003,
      "Ġeingesch": 5004,
      "Ġeinander": 5005,
      "orf": 5006,
      "orben": 5007,
      "orne": 5008,
      "ĠWin": 5009,
      "ĠWenn": 5010,
      "ĠWÃ¤l": 5011,
      "ĠWitz": 5012,
      "ĠWelten": 5013,
      "euf": 5014,
      "eurer": 5015,
      "eutend": 5016,
      "schwei": 5017,
      "onnt": 5018,
      "Ġerre": 5019,
      "Ġergeben": 5020,
      "Ġerkl": 5021,
      "Ġlis": 5022,
      "Ġlehrt": 5023,
      "Ġlernen": 5024,
      "Ġlinks": 5025,
      "ĠFar": 5026,
      "ĠFaÃŁ": 5027,
      "ĠFitt": 5028,
      "ĠFack": 5029,
      "ĠFische": 5030,
      "ĠFeder": 5031,
      "ĠFunken": 5032,
      "ĠFrosch": 5033,
      "ĠBesch": 5034,
      "ĠBeil": 5035,
      "ĠBund": 5036,
      "ĠBeine": 5037,
      "ĠBart": 5038,
      "ĠBesen": 5039,
      "ĠBanden": 5040,
      "ĠBreite": 5041,
      "ĠBrand": 5042,
      "ĠBilder": 5043,
      "Ġkra": 5044,
      "Ġkrie": 5045,
      "igkeiten": 5046,
      "urt": 5047,
      "urpur": 5048,
      "ĠauÃŁen": 5049,
      "unehmen": 5050,
      "ĠMel": 5051,
      "ĠMart": 5052,
      "ĠMittern": 5053,
      "ĠMale": 5054,
      "ĠMantel": 5055,
      "ĠTrin": 5056,
      "ĠTrieb": 5057,
      "ĠTIER": 5058,
      "ĠKan": 5059,
      "ĠKuÃŁ": 5060,
      "ĠKlÃ¼": 5061,
      "ĠKerk": 5062,
      "ĠKNA": 5063,
      "ĠKampf": 5064,
      "ĠKÃ¤stchen": 5065,
      "ĠSchon": 5066,
      "ĠSchlei": 5067,
      "ĠScherz": 5068,
      "ĠSchaff": 5069,
      "ĠLoch": 5070,
      "ĠLÃ¼gen": 5071,
      "ĠLaube": 5072,
      "ĠLÃ¶w": 5073,
      "Ġverz": 5074,
      "Ġvereint": 5075,
      "Ġverstehn": 5076,
      "STE": 5077,
      "Ġsichre": 5078,
      "lichtet": 5079,
      "Ġgezie": 5080,
      "Ġdenke": 5081,
      "Ġunb": 5082,
      "Ġuntern": 5083,
      "Ġunged": 5084,
      "Ġunbes": 5085,
      "derm": 5086,
      "derst": 5087,
      "Ġinner": 5088,
      "ĠEd": 5089,
      "ĠEdel": 5090,
      "Ġtau": 5091,
      "ĠtÃ¼ck": 5092,
      "Ġteil": 5093,
      "ĠtÃ¶r": 5094,
      "Ġtri": 5095,
      "Ġtrieb": 5096,
      "Ġtoben": 5097,
      "reibt": 5098,
      "reitend": 5099,
      "Diesen": 5100,
      "Dieser": 5101,
      "ennte": 5102,
      "inder": 5103,
      "ĠReu": 5104,
      "ĠReg": 5105,
      "ĠRast": 5106,
      "ĠRetter": 5107,
      "ĠRÃ¤ume": 5108,
      "ĠAm": 5109,
      "ĠAnd": 5110,
      "ĠAkt": 5111,
      "ĠAhnen": 5112,
      "ĠAtem": 5113,
      "ĠAsche": 5114,
      "ĠAND": 5115,
      "LEMON": 5116,
      "Ġwirklich": 5117,
      "annen": 5118,
      "Ġange": 5119,
      "Ġanerk": 5120,
      "ĠPort": 5121,
      "ĠPers": 5122,
      "ĠPapp": 5123,
      "bergen": 5124,
      "Ã¼rmen": 5125,
      "Ã¼rmt": 5126,
      "rachte": 5127,
      "Ġaufzu": 5128,
      "Ġallgem": 5129,
      "Ġallhier": 5130,
      "leidet": 5131,
      "ros": 5132,
      "Ġunsel": 5133,
      "dehn": 5134,
      "decken": 5135,
      "utter": 5136,
      "utzen": 5137,
      "ĠjÃ¼n": 5138,
      "Ġjugend": 5139,
      "olch": 5140,
      "olgt": 5141,
      "achtet": 5142,
      "ĠDÃ¤mm": 5143,
      "ĠDÃ¤mmer": 5144,
      "ĠDecke": 5145,
      "ĠDolch": 5146,
      "ĠstÃ¶": 5147,
      "ĠstieÃŁ": 5148,
      "Ġstreiten": 5149,
      "Ġstreuen": 5150,
      "ruh": 5151,
      "ĠNu": 5152,
      "ĠNein": 5153,
      "ĠNoch": 5154,
      "ĠNetz": 5155,
      "ĠNÃ¤h": 5156,
      "ĠVort": 5157,
      "ĠVlie": 5158,
      "ĠVÃ¶gel": 5159,
      "ĠVogel": 5160,
      "ĠZeu": 5161,
      "ĠZeus": 5162,
      "ĠSturz": 5163,
      "ĠStahl": 5164,
      "ĠStrom": 5165,
      "ĠStrahl": 5166,
      "ĠStraÃŁ": 5167,
      "Ġwohnt": 5168,
      "lebt": 5169,
      "Sollt": 5170,
      "ErÃ¶ff": 5171,
      "agner": 5172,
      "ĠherÃ¼ber": 5173,
      "Ġbezeich": 5174,
      "Ã¤ngel": 5175,
      "umt": 5176,
      "umpe": 5177,
      "undne": 5178,
      "Ġaltem": 5179,
      "ĠGegend": 5180,
      "phe": 5181,
      "ildern": 5182,
      "ame": 5183,
      "ament": 5184,
      "necht": 5185,
      "rÃ¼ben": 5186,
      "ellig": 5187,
      "ellung": 5188,
      "Ġausgeb": 5189,
      "Ġwartet": 5190,
      "Ã¤rke": 5191,
      "Ã¤rmlich": 5192,
      "Unsel": 5193,
      "hens": 5194,
      "rÃ¤ch": 5195,
      "rÃ¤gt": 5196,
      "rÃ¤umt": 5197,
      "riedlich": 5198,
      "riedigt": 5199,
      "Ġentsteht": 5200,
      "Ġentdeckt": 5201,
      "ĠspÃ¼rt": 5202,
      "ĠErnst": 5203,
      "Ã¤tigkeit": 5204,
      "oss": 5205,
      "osoph": 5206,
      "ORI": 5207,
      "otas": 5208,
      "Ġjedoch": 5209,
      "Ġselten": 5210,
      "Ġsollten": 5211,
      "Ġalsdann": 5212,
      "weile": 5213,
      "Ġred": 5214,
      "Ġret": 5215,
      "ĠÃ¼berw": 5216,
      "ĠÃ¼bergeben": 5217,
      "Ġgewahr": 5218,
      "ĠgewÃ¤hrt": 5219,
      "gelegt": 5220,
      "ĠfÃ¼rwahr": 5221,
      "Ã¼hlen": 5222,
      "ĠVerl": 5223,
      "ĠVerrÃ¤": 5224,
      "ĠVerzwei": 5225,
      "ĠVergnÃ¼gen": 5226,
      "Ġhohl": 5227,
      "ĠManns": 5228,
      "Woher": 5229,
      "ĠSchwingen": 5230,
      "nerin": 5231,
      "Ġgenung": 5232,
      "Ġander": 5233,
      "Ġandres": 5234,
      "ĠPfro": 5235,
      "ĠPfeil": 5236,
      "iene": 5237,
      "uletzt": 5238,
      "Ġpar": 5239,
      "ĠUngew": 5240,
      "ĠUnmuth": 5241,
      "erspiel": 5242,
      "Ã¼tzt": 5243,
      "Ġwiederkehr": 5244,
      "barkeit": 5245,
      "ĠWeite": 5246,
      "ĠWeile": 5247,
      "ĠWeihe": 5248,
      "ĠWeihrauch": 5249,
      "Ġgeschehen": 5250,
      "Ã¤ler": 5251,
      "Ã¤ndern": 5252,
      "Ã¤ndige": 5253,
      "Ġgeschen": 5254,
      "Ġgespen": 5255,
      "ĠGeselle": 5256,
      "rÃ¤nkten": 5257,
      "Ġabger": 5258,
      "Ġabgesch": 5259,
      "ĠSeen": 5260,
      "Ged": 5261,
      "ĠFlur": 5262,
      "ĠFloh": 5263,
      "Ġvoller": 5264,
      "Ġvollkommen": 5265,
      "ĠTodes": 5266,
      "ĠHÃ¶hn": 5267,
      "spaz": 5268,
      "ĠArg": 5269,
      "ĠArkas": 5270,
      "ÃľRGER": 5271,
      "glut": 5272,
      "Ġheiliger": 5273,
      "gebirg": 5274,
      "Ġewiger": 5275,
      "Ġgelangen": 5276,
      "Ġgelehrt": 5277,
      "Ġgelingen": 5278,
      "ĠTags": 5279,
      "erkl": 5280,
      "Ġerstanden": 5281,
      "Ã¤chter": 5282,
      "ĠHandwerk": 5283,
      "ĠSchlange": 5284,
      "Ġverschwindet": 5285,
      "Ġrechts": 5286,
      "Ġrechter": 5287,
      "ALLE": 5288,
      "ĠmÃ¶ge": 5289,
      "ĠhÃ¶hern": 5290,
      "Ġverlassen": 5291,
      "IEL": 5292,
      "hof": 5293,
      "Ġfreie": 5294,
      "Ġfreien": 5295,
      "Ġfreiem": 5296,
      "adet": 5297,
      "gestaltet": 5298,
      "ĠgefaÃŁt": 5299,
      "ĠgefÃ¤llig": 5300,
      "Ġwenigen": 5301,
      "Ġweniger": 5302,
      "Ġziemlich": 5303,
      "SCHAT": 5304,
      "Ġdorthin": 5305,
      "ĠGefÃ¤hrten": 5306,
      "Ġruf": 5307,
      "Ġruh": 5308,
      "Ġruht": 5309,
      "Ġrufen": 5310,
      "flor": 5311,
      "wegen": 5312,
      "Ġbesitzt": 5313,
      "lamme": 5314,
      "geschickt": 5315,
      "Ġnahen": 5316,
      "Ġnackt": 5317,
      "Ġunterm": 5318,
      "Ġallerlieb": 5319,
      "gewalt": 5320,
      "gewinn": 5321,
      "gewendet": 5322,
      "Ġschnellen": 5323,
      "Ġgehorchen": 5324,
      "Still": 5325,
      "ĠLeid": 5326,
      "fehl": 5327,
      "ĠKlang": 5328,
      "ĠKlarheit": 5329,
      "ptun": 5330,
      "Ġfrohe": 5331,
      "Ġbestellt": 5332,
      "Ġbestimmt": 5333,
      "artig": 5334,
      "Ġverweil": 5335,
      "ĠbetÃ¶ren": 5336,
      "Ġherrlichen": 5337,
      "Ġherrscht": 5338,
      "ĠPlut": 5339,
      "ĠLanden": 5340,
      "ĠAnmut": 5341,
      "Ġemsig": 5342,
      "Ġgerei": 5343,
      "Ġgerichtet": 5344,
      "ĠEins": 5345,
      "Ġzerb": 5346,
      "Ġzerf": 5347,
      "ĠBecher": 5348,
      "ĠGebilde": 5349,
      "ĠTodten": 5350,
      "schluÃŁ": 5351,
      "Ġliebte": 5352,
      "Ġliebsten": 5353,
      "Ġraschen": 5354,
      "Ġrascher": 5355,
      "Ġerscheinen": 5356,
      "Ġglaube": 5357,
      "Ġglaubst": 5358,
      "MULUS": 5359,
      "ÃĦL": 5360,
      "drein": 5361,
      "drung": 5362,
      "drang": 5363,
      "ĠwÃ¼rd": 5364,
      "Ã¤ub": 5365,
      "Ġlegen": 5366,
      "ĠVorsicht": 5367,
      "ĠVorsatz": 5368,
      "Ġversagt": 5369,
      "Ġbefreit": 5370,
      "Ġbehend": 5371,
      "Ġbehagt": 5372,
      "Ġbehaglich": 5373,
      "ĠverdrieÃŁen": 5374,
      "ĠSohnes": 5375,
      "Ġzweifel": 5376,
      "Ġstarr": 5377,
      "Ġbegegnet": 5378,
      "ĠGeleit": 5379,
      "ĠergrÃ¼nden": 5380,
      "ĠDienste": 5381,
      "ĠNachricht": 5382,
      "ĠbedÃ¼r": 5383,
      "Ġrot": 5384,
      "ĠPhalan": 5385,
      "ĠĠĠĠĠĠĠĠĠĠĠĠĠĠĠĠĠĠĠĠĠĠĠĠĠĠĠ": 5386,
      "echs": 5387,
      "Ġbelehrt": 5388,
      "Ġferne": 5389,
      "Ġfernen": 5390,
      "ĠKronen": 5391,
      "ĠSterblichen": 5392,
      "ĠWirk": 5393,
      "zuschlagen": 5394,
      "Ġrauhen": 5395,
      "Ġrauscht": 5396,
      "Ġfehlen": 5397,
      "Ġeinziger": 5398,
      "Ġlauter": 5399,
      "Ġtreuer": 5400,
      "Ġirr": 5401,
      "Ġgemeint": 5402,
      "Ġfolgen": 5403,
      "Ġerhalten": 5404,
      "ĠgedrÃ¤ng": 5405,
      "Ġerwider": 5406,
      "Ġvermehrt": 5407,
      "Ġhinterdrein": 5408,
      "kommnen": 5409,
      "ĠwÃ¼nschte": 5410,
      "ĠglÃ¼h": 5411,
      "inkend": 5412,
      "Ġfremder": 5413,
      "ĠvergaÃŁ": 5414,
      "Ġnehmt": 5415,
      "Ġfrommt": 5416,
      "Ġeng": 5417,
      "Ġeilt": 5418,
      "Ġeilen": 5419,
      "Ġunerwartet": 5420,
      "Ġbunte": 5421,
      "ĠHÃ¼lle": 5422,
      "ĠEure": 5423,
      "Ġthun": 5424,
      "ĠgenieÃŁt": 5425,
      "ĠChaos": 5426,
      "ĠWolke": 5427,
      "ĠverfÃ¼hrt": 5428,
      "Ġkleiner": 5429,
      "ĠerzÃ¤hlen": 5430,
      "Ġkenne": 5431,
      "ĠtrÃ¼be": 5432,
      "ĠLiebchens": 5433,
      "iednen": 5434,
      "ĠGrill": 5435,
      "ĠBegriff": 5436,
      "ĠGefÃ¼hle": 5437,
      "Ġharren": 5438,
      "ĠschÃ¼tt": 5439,
      "Ġtrinken": 5440,
      "Ġsinnt": 5441,
      "Ġsinken": 5442,
      "ĠWÃ¼rde": 5443,
      "Wollt": 5444,
      "Wollen": 5445,
      "ĠSohlen": 5446,
      "Ġerwarb": 5447,
      "ĠBuchten": 5448,
      "Ġinnig": 5449,
      "Ġinnre": 5450,
      "ĠVertraun": 5451,
      "Ġoffenbar": 5452,
      "ĠschÃ¤tzt": 5453,
      "ĠWahnsinn": 5454,
      "Ġlustig": 5455,
      "ĠMark": 5456,
      "ĠMagd": 5457,
      "ĠMagie": 5458,
      "ĠEisen": 5459,
      "ĠAufzug": 5460,
      "ĠNÃ¤chte": 5461,
      "Ġverschlossen": 5462,
      "ĠglÃ¤nzt": 5463,
      "Gelassen": 5464,
      "besitz": 5465,
      "ĠÃ¤hn": 5466,
      "ĠgegrÃ¼": 5467,
      "Ġplump": 5468,
      "Ã¶lkchen": 5469,
      "ĠÃ¶ff": 5470,
      "Ġergetzen": 5471,
      "Ġleere": 5472,
      "Ġleeren": 5473,
      "Ġstreng": 5474,
      "Ġstrenge": 5475,
      "Ġgewaltig": 5476,
      "ANTAS": 5477,
      "udiert": 5478,
      "ĠgrÃ¶ÃŁte": 5479,
      "Ġnenne": 5480,
      "Ġschlechte": 5481,
      "scheinung": 5482,
      "ĠBÃ¼ch": 5483,
      "ĠMÃ¼he": 5484,
      "ĠKirch": 5485,
      "ĠKleid": 5486,
      "ĠverlieÃŁ": 5487,
      "Schnell": 5488,
      "lÃ¤uf": 5489,
      "zusp": 5490,
      "Ġdeutlich": 5491,
      "Ġmenschlich": 5492,
      "ĠnÃ¼tzen": 5493,
      "ĠnÃ¼tzt": 5494,
      "Ġfalsch": 5495,
      "ĠFauste": 5496,
      "Ġverleiht": 5497,
      "ĠGeschwist": 5498,
      "ĠGewÃ¶lb": 5499,
      "schlagnen": 5500,
      "ĠIrrt": 5501,
      "Ġtrefflich": 5502,
      "Ewig": 5503,
      "setzlich": 5504,
      "Ġmelden": 5505,
      "ĠSphÃ¤ren": 5506,
      "ĠGrÃ¤uel": 5507,
      "Ġschaffe": 5508,
      "Ġtapf": 5509,
      "Ġdumpfen": 5510,
      "ĠStirne": 5511,
      "Ġschweifen": 5512,
      "ANDRE": 5513,
      "verwandte": 5514,
      "verwandten": 5515,
      "Ġverwirrt": 5516,
      "ĠGEIST": 5517,
      "ĠBrut": 5518,
      "ĠkÃ¼hlen": 5519,
      "Ġverworr": 5520,
      "Ġverworren": 5521,
      "ĠBeding": 5522,
      "ĠPferdefuÃŁ": 5523,
      "Ġfurchtbar": 5524,
      "ĠTantals": 5525,
      "ĠTantalus": 5526,
      "ĠPalast": 5527,
      "Irr": 5528,
      "ĠflÃ¼cht": 5529,
      "ĠTreue": 5530,
      "ĠSchlaf": 5531,
      "Ġanzuschauen": 5532,
      "ĠNichts": 5533,
      "Ã¤tzchen": 5534,
      "ĠReichtum": 5535,
      "ĠWohlthat": 5536,
      "Margarete": 5537,
      "Welche": 5538,
      "Ġeitel": 5539,
      "Ġgrenzenlos": 5540,
      "Ã¤sser": 5541,
      "ĠbrÃ¼nst": 5542,
      "ĠGroÃŁen": 5543,
      "ĠWurzeln": 5544,
      "ĠlÃ¼stern": 5545,
      "ĠBarbaren": 5546,
      "PHILEMON": 5547,
      "Ġthront": 5548,
      "ĠDirne": 5549,
      "ĠstrÃ¶mt": 5550,
      "ĠsprÃ¼ht": 5551,
      "Ġsammelt": 5552,
      "ĠprÃ¤chtig": 5553,
      "ĠUngeheuer": 5554,
      "ĠbegrÃ¼ÃŁen": 5555,
      "ĠPhilosoph": 5556,
      "ĠAgamemnons": 5557,
      "FAMULUS": 5558,
      "MANN": 5559,
      "gÃ¼ltig": 5560,
      "Ġflachen": 5561,
      "ĠWuth": 5562,
      "ĠMesser": 5563,
      "ĠEbenbild": 5564,
      "ĠAdler": 5565,
      "ĠStrÃ¶men": 5566,
      "undersam": 5567,
      "Ġschwebet": 5568,
      "Ġschwankend": 5569,
      "ĠBlÃ¤tter": 5570,
      "ĠKlytÃ¤mnestra": 5571,
      "gÃ¶tter": 5572,
      "lose": 5573,
      "ĠzunÃ¤chst": 5574,
      "ĠFrevel": 5575,
      "ĠBalsam": 5576,
      "ĠkÃ¼nstlich": 5577,
      "ĠMusik": 5578,
      "ĠKanzler": 5579,
      "ĠgequÃ¤lt": 5580,
      "ĠAbenteuer": 5581,
      "Ġjemand": 5582,
      "ĠZufall": 5583,
      "abyrinth": 5584,
      "ĠSchwefel": 5585,
      "HOFMANN": 5586,
      "BAUCIS": 5587,
      "YNKEUS": 5588,
      "espekt": 5589,
      "ĠMitternacht": 5590,
      "ĠTIERE": 5591,
      "ĠKNABEN": 5592,
      "ĠSchaffnerin": 5593,
      "SCHATZMEISTER": 5594,
      "ĠPhalanx": 5595,
      ".âĢĶ": 5596,
      "?...": 5597,
      "AGE": 5598,
      "Blei": 5599,
      "BEI": 5600,
      "Beim": 5601,
      "BÃĸ": 5602,
      "Christ": 5603,
      "DO": 5604,
      "Drei": 5605,
      "Dro": 5606,
      "Drin": 5607,
      "DCHEN": 5608,
      "Dian": 5609,
      "DrÃ¤ngen": 5610,
      "DICH": 5611,
      "EM": 5612,
      "GÃ¶n": 5613,
      "GrÃ¼": 5614,
      "Gehn": 5615,
      "Gab": 5616,
      "Greif": 5617,
      "GÃĦR": 5618,
      "Hel": 5619,
      "Har": 5620,
      "HÃ¤lt": 5621,
      "Hebt": 5622,
      "Heim": 5623,
      "Halte": 5624,
      "IL": 5625,
      "IGER": 5626,
      "KÃ¶nig": 5627,
      "KÃĦ": 5628,
      "Leben": 5629,
      "Luft": 5630,
      "Lebt": 5631,
      "LieÃŁ": 5632,
      "Leise": 5633,
      "LYNKEUS": 5634,
      "MÃ¼": 5635,
      "Mehr": 5636,
      "NEN": 5637,
      "Natur": 5638,
      "Nah": 5639,
      "NatÃ¼rlich": 5640,
      "Oft": 5641,
      "PU": 5642,
      "Pro": 5643,
      "Platz": 5644,
      "RR": 5645,
      "Re": 5646,
      "Rau": 5647,
      "San": 5648,
      "SEN": 5649,
      "Singt": 5650,
      "Sagt": 5651,
      "Sitzt": 5652,
      "Sah": 5653,
      "Th": 5654,
      "Tre": 5655,
      "Tro": 5656,
      "TÃ¤t": 5657,
      "Tod": 5658,
      "Ur": 5659,
      "VIER": 5660,
      "Wor": 5661,
      "Wol": 5662,
      "WÃ¶l": 5663,
      "WÃ¼ÃŁt": 5664,
      "ZU": 5665,
      "Zuf": 5666,
      "Zug": 5667,
      "aph": 5668,
      "bu": 5669,
      "bein": 5670,
      "blich": 5671,
      "band": 5672,
      "besch": 5673,
      "bnen": 5674,
      "belt": 5675,
      "bliche": 5676,
      "bieren": 5677,
      "banden": 5678,
      "die": 5679,
      "dol": 5680,
      "duft": 5681,
      "fle": 5682,
      "felt": 5683,
      "fÃ¼ll": 5684,
      "frucht": 5685,
      "gr": 5686,
      "gut": 5687,
      "gist": 5688,
      "hel": 5689,
      "hÃ¤lt": 5690,
      "hÃ¶rt": 5691,
      "haufen": 5692,
      "heisa": 5693,
      "ip": 5694,
      "iten": 5695,
      "ium": 5696,
      "iste": 5697,
      "imp": 5698,
      "ker": 5699,
      "kst": 5700,
      "ket": 5701,
      "keln": 5702,
      "kul": 5703,
      "kopf": 5704,
      "kÃ¤tzchen": 5705,
      "losen": 5706,
      "leuchte": 5707,
      "mte": 5708,
      "mos": 5709,
      "mitt": 5710,
      "mensch": 5711,
      "natur": 5712,
      "obt": 5713,
      "pein": 5714,
      "platz": 5715,
      "ris": 5716,
      "sl": 5717,
      "sie": 5718,
      "seit": 5719,
      "sers": 5720,
      "tag": 5721,
      "teil": 5722,
      "tik": 5723,
      "uhr": 5724,
      "uster": 5725,
      "vers": 5726,
      "wer": 5727,
      "yr": 5728,
      "zum": 5729,
      "zeugt": 5730,
      "ĠIphigen": 5731,
      "ĠIst": 5732,
      "Ġenden": 5733,
      "cho": 5734,
      "chzt": 5735,
      "chste": 5736,
      "chtet": 5737,
      "enus": 5738,
      "erlei": 5739,
      "erse": 5740,
      "errt": 5741,
      "Ġdur": 5742,
      "Ġdre": 5743,
      "Ġdest": 5744,
      "Ġdauer": 5745,
      "Ġdauern": 5746,
      "Ġdichten": 5747,
      "Ġdanke": 5748,
      "Ġdonn": 5749,
      "Ġdoppel": 5750,
      "eis": 5751,
      "ĠsÃ¤": 5752,
      "Ġsau": 5753,
      "Ġsacht": 5754,
      "Ġsang": 5755,
      "Ġsende": 5756,
      "Ġsuchte": 5757,
      "Ġsenkt": 5758,
      "iete": 5759,
      "icher": 5760,
      "str": 5761,
      "steh": 5762,
      "stellt": 5763,
      "stunde": 5764,
      "stadt": 5765,
      "Ġwem": 5766,
      "Ġwicht": 5767,
      "Ġwag": 5768,
      "Ġwacht": 5769,
      "ĠwÃ¼t": 5770,
      "Ġwehren": 5771,
      "Ġwaltet": 5772,
      "Ġwallend": 5773,
      "eins": 5774,
      "einer": 5775,
      "ess": 5776,
      "essal": 5777,
      "esselt": 5778,
      "eswegs": 5779,
      "Ġmeist": 5780,
      "Ġmache": 5781,
      "Ġmilden": 5782,
      "ĠmÃ¶rder": 5783,
      "Ã¼b": 5784,
      "Ã¼ste": 5785,
      "Ġindessen": 5786,
      "Ġgast": 5787,
      "Ġgaffen": 5788,
      "Ġgreifen": 5789,
      "Ġgleicht": 5790,
      "elchen": 5791,
      "elhaft": 5792,
      "eligkeit": 5793,
      "elieben": 5794,
      "ĠnÃ¤chtig": 5795,
      "Ġhern": 5796,
      "Ġhehr": 5797,
      "Ġhimmel": 5798,
      "Ã¤ten": 5799,
      "Ã¤gt": 5800,
      "Ã¤men": 5801,
      "Ã¤hne": 5802,
      "Ã¤lle": 5803,
      "ĠSc": 5804,
      "ĠSal": 5805,
      "ĠSoll": 5806,
      "ĠSamm": 5807,
      "ĠSeinen": 5808,
      "ĠSib": 5809,
      "ĠSonn": 5810,
      "ĠSÃ¶hne": 5811,
      "ĠSÃ¤len": 5812,
      "ĠSeuf": 5813,
      "ĠSeligkeit": 5814,
      "ĠzÃ¼r": 5815,
      "ĠzÃ¼n": 5816,
      "Ġzehen": 5817,
      "ĠzÃ¤rt": 5818,
      "Ġzapp": 5819,
      "Ġzischt": 5820,
      "ÃŁer": 5821,
      "ÃŁet": 5822,
      "ÃŁlich": 5823,
      "ÃŁre": 5824,
      "ĠvÃ¤ter": 5825,
      "irgst": 5826,
      "Ġbar": 5827,
      "Ġbit": 5828,
      "Ġblau": 5829,
      "Ġbaut": 5830,
      "ĠbÃ¼ÃŁen": 5831,
      "Ġbring": 5832,
      "Ġbrach": 5833,
      "Ġbilden": 5834,
      "Ġbittern": 5835,
      "Ġblauen": 5836,
      "Ġbeugen": 5837,
      "Ġbehende": 5838,
      "ĠGreu": 5839,
      "ĠGren": 5840,
      "ĠGÃ¼t": 5841,
      "ĠGatt": 5842,
      "ĠGreifen": 5843,
      "ĠGÃ¼te": 5844,
      "auz": 5845,
      "auten": 5846,
      "teus": 5847,
      "empf": 5848,
      "Ã¶ht": 5849,
      "Ã¶tet": 5850,
      "Ã¶bel": 5851,
      "Ã¶pfen": 5852,
      "ichtbar": 5853,
      "Ġzugebracht": 5854,
      "Ġfand": 5855,
      "Ġfeinen": 5856,
      "Ġfass": 5857,
      "Ġfeucht": 5858,
      "ĠfÃ¼llt": 5859,
      "ĠfÃ¼ll": 5860,
      "Ġfahre": 5861,
      "Ġfriedlich": 5862,
      "Ġfuhr": 5863,
      "geht": 5864,
      "ĠHut": 5865,
      "ĠHung": 5866,
      "ĠHÃ¤l": 5867,
      "ĠHauf": 5868,
      "ĠHunde": 5869,
      "ĠHÃ¤ÃŁ": 5870,
      "ĠHalle": 5871,
      "ĠHeisa": 5872,
      "ĠHindern": 5873,
      "Ġschier": 5874,
      "Ġschlie": 5875,
      "ĠschÃ¤d": 5876,
      "Ġschuld": 5877,
      "Ġschreit": 5878,
      "Ġschrecken": 5879,
      "ĠschlieÃŁen": 5880,
      "Ġscharfen": 5881,
      "ara": 5882,
      "arus": 5883,
      "Ġeinsam": 5884,
      "Ġeinzusch": 5885,
      "org": 5886,
      "ĠWeit": 5887,
      "ĠWust": 5888,
      "ĠWangen": 5889,
      "ĠWogen": 5890,
      "ĠWette": 5891,
      "ĠWahl": 5892,
      "ĠWurm": 5893,
      "ĠWÃ¤nde": 5894,
      "ĠWÃ¶lkchen": 5895,
      "eure": 5896,
      "eutet": 5897,
      "eugte": 5898,
      "eulen": 5899,
      "schel": 5900,
      "scheu": 5901,
      "schÃ¶n": 5902,
      "schla": 5903,
      "scharen": 5904,
      "ont": 5905,
      "eter": 5906,
      "etit": 5907,
      "Ġerster": 5908,
      "Ġerlaubt": 5909,
      "Ġerreicht": 5910,
      "Ġerhoben": 5911,
      "Ġlicht": 5912,
      "Ġlern": 5913,
      "Ġlehn": 5914,
      "Ġlernt": 5915,
      "ĠlÃ¶st": 5916,
      "ĠFaden": 5917,
      "ĠFrat": 5918,
      "ĠFeste": 5919,
      "ĠFahrt": 5920,
      "ĠFinger": 5921,
      "ĠFÃ¤den": 5922,
      "ĠFrÃ¤ulein": 5923,
      "ĠBein": 5924,
      "ĠBem": 5925,
      "ĠBro": 5926,
      "ĠBach": 5927,
      "ĠBad": 5928,
      "ĠBÃ¼nd": 5929,
      "ĠBÃ¤ch": 5930,
      "ĠBauch": 5931,
      "ĠBrot": 5932,
      "ĠBelieben": 5933,
      "mme": 5934,
      "ĠauÃŁer": 5935,
      "unten": 5936,
      "unkt": 5937,
      "ĠMan": 5938,
      "ĠMeinen": 5939,
      "ĠMed": 5940,
      "ĠMaul": 5941,
      "ĠTÃ¶": 5942,
      "ĠTEI": 5943,
      "ĠTri": 5944,
      "ĠTrÃ¶": 5945,
      "ĠTausend": 5946,
      "ĠTische": 5947,
      "ĠTreuen": 5948,
      "ĠTÃ¶pfe": 5949,
      "ĠTÃ¤tigkeit": 5950,
      "ĠKrÃ¼": 5951,
      "ĠKab": 5952,
      "ĠKATER": 5953,
      "ĠSchand": 5954,
      "ĠSchopf": 5955,
      "ĠSchÃ¼l": 5956,
      "ĠSchreck": 5957,
      "ĠSchande": 5958,
      "ĠSchÃ¶pf": 5959,
      "ĠLa": 5960,
      "ĠLet": 5961,
      "ĠLug": 5962,
      "ĠLebt": 5963,
      "ĠLauben": 5964,
      "Ġverru": 5965,
      "Ġvereinen": 5966,
      "Ġverehrt": 5967,
      "ĠverhÃ¼": 5968,
      "ĠverrÃ¼ckt": 5969,
      "ĠverrÃ¼ck": 5970,
      "alter": 5971,
      "Ġsichert": 5972,
      "Ġgestern": 5973,
      "Ġgezogen": 5974,
      "Ġdenk": 5975,
      "Ġunauf": 5976,
      "ĠunglÃ¼ck": 5977,
      "Ġunschuldig": 5978,
      "ĠunnÃ¼tz": 5979,
      "recher": 5980,
      "redung": 5981,
      "Ġsieben": 5982,
      "ĠEil": 5983,
      "ĠEllen": 5984,
      "ĠEmpf": 5985,
      "atte": 5986,
      "Ġtra": 5987,
      "Ġtanzen": 5988,
      "ĠtÃ¼chtig": 5989,
      "ftige": 5990,
      "reibe": 5991,
      "Ġdul": 5992,
      "hlte": 5993,
      "Diese": 5994,
      "enner": 5995,
      "ennest": 5996,
      "ĠRand": 5997,
      "ĠRest": 5998,
      "ĠRund": 5999,
      "ĠRad": 6000,
      "ĠRachen": 6001,
      "ĠRunde": 6002,
      "ĠRatten": 6003,
      "ĠRollen": 6004,
      "LEN": 6005,
      "ierte": 6006,
      "andten": 6007,
      "Ġanmut": 6008,
      "Ġangetan": 6009,
      "Ġanvert": 6010,
      "ĠPaÃŁ": 6011,
      "ĠPol": 6012,
      "ĠPreis": 6013,
      "bert": 6014,
      "rad": 6015,
      "rache": 6016,
      "Ġaufge": 6017,
      "Ġalleine": 6018,
      "Ġju": 6019,
      "Ġjammert": 6020,
      "ĠDr": 6021,
      "ĠDein": 6022,
      "ĠDro": 6023,
      "ĠDuft": 6024,
      "ĠDurst": 6025,
      "ĠDelph": 6026,
      "rausen": 6027,
      "Ġstanden": 6028,
      "Ġstieg": 6029,
      "Ġstinkt": 6030,
      "Ġstockt": 6031,
      "Ġstumpf": 6032,
      "Ġstolzen": 6033,
      "ĠNer": 6034,
      "ĠNest": 6035,
      "ĠNÃ¤ch": 6036,
      "ĠVoll": 6037,
      "ĠVetter": 6038,
      "ERS": 6039,
      "ERSTER": 6040,
      "ĠZelt": 6041,
      "ĠZehn": 6042,
      "ĠZahn": 6043,
      "ĠZunge": 6044,
      "ĠZahl": 6045,
      "ĠZiegen": 6046,
      "ĠSta": 6047,
      "ĠStu": 6048,
      "ĠStand": 6049,
      "ĠSteine": 6050,
      "ĠStreifen": 6051,
      "ĠStreite": 6052,
      "ĠStaube": 6053,
      "ĠStrahlen": 6054,
      "ĠStÃ¤mme": 6055,
      "ĠStÃ¤rke": 6056,
      "Ġwogt": 6057,
      "ehrte": 6058,
      "ehrung": 6059,
      "ehrend": 6060,
      "Sogleich": 6061,
      "Ġherunter": 6062,
      "Ġbeten": 6063,
      "uchhe": 6064,
      "ĠHerde": 6065,
      "ĠHerdes": 6066,
      "umph": 6067,
      "eiligt": 6068,
      "endes": 6069,
      "bed": 6070,
      "Ġdeinetwillen": 6071,
      "isches": 6072,
      "ischem": 6073,
      "Eine": 6074,
      "âĢĻ,": 6075,
      "ĠGekl": 6076,
      "Ġumsch": 6077,
      "Ġumschl": 6078,
      "Ġumgab": 6079,
      "Ġhinzu": 6080,
      "steckt": 6081,
      "ilett": 6082,
      "ams": 6083,
      "nebel": 6084,
      "uÃŁe": 6085,
      "hme": 6086,
      "Ġvorgesch": 6087,
      "rÃ¼che": 6088,
      "euchtend": 6089,
      "Ġausges": 6090,
      "ringe": 6091,
      "Ġwarm": 6092,
      "anges": 6093,
      "Ã¤rte": 6094,
      "Ã¤rden": 6095,
      "Ã¤rkt": 6096,
      "Ã¤rmt": 6097,
      "Ġoff": 6098,
      "leiche": 6099,
      "egnen": 6100,
      "Ġschwach": 6101,
      "Ġschwoll": 6102,
      "ĠschwÃ¤r": 6103,
      "Ġschwellen": 6104,
      "Ġschweige": 6105,
      "Ġschwimmen": 6106,
      "ARIEL": 6107,
      "Ġweis": 6108,
      "ufl": 6109,
      "Schwei": 6110,
      "Schwe": 6111,
      "Schaut": 6112,
      "Schaff": 6113,
      "riesen": 6114,
      "Ġentfl": 6115,
      "ĠentrÃ¼ckt": 6116,
      "Ġentdecken": 6117,
      "Ġdaher": 6118,
      "eistet": 6119,
      "istig": 6120,
      "Ġspr": 6121,
      "Ġspat": 6122,
      "Ġspren": 6123,
      "Ġspitz": 6124,
      "Ġspringen": 6125,
      "ĠspÃ¤ter": 6126,
      "Ġsprech": 6127,
      "ĠspÃ¼re": 6128,
      "ĠspÃ¼ren": 6129,
      "Ġspiegelt": 6130,
      "ĠErw": 6131,
      "ĠErscheinung": 6132,
      "ĠErschlagnen": 6133,
      "ĠOb": 6134,
      "ĠOsten": 6135,
      "ĠOffen": 6136,
      "Ġwohlbek": 6137,
      "Ã¤tigt": 6138,
      "lieder": 6139,
      "liebe": 6140,
      "ĠJo": 6141,
      "ĠJun": 6142,
      "ĠJunk": 6143,
      "ĠJÃľN": 6144,
      "ĠJuchhe": 6145,
      "otte": 6146,
      "ĠBlitze": 6147,
      "ĠBlume": 6148,
      "ĠBlute": 6149,
      "ĠBlÃ¼ten": 6150,
      "Dahin": 6151,
      "Ġsolltet": 6152,
      "Ġsolltest": 6153,
      "Ġrege": 6154,
      "Ġrettet": 6155,
      "omit": 6156,
      "Ã¼nsch": 6157,
      "Ã¼nftig": 6158,
      "ĠÃ¼berb": 6159,
      "ĠÃ¼berr": 6160,
      "ĠÃ¼bersp": 6161,
      "ĠÃ¼bereilt": 6162,
      "ĠÃ¼berlassen": 6163,
      "Ġdurcheinander": 6164,
      "Ġgewogen": 6165,
      "Ġgewandt": 6166,
      "ĠgewÃ¶hnen": 6167,
      "gelieb": 6168,
      "gelockt": 6169,
      "ĠGlÃ¤": 6170,
      "ĠGlock": 6171,
      "Ġekl": 6172,
      "ĠfÃ¼rs": 6173,
      "ĠfÃ¼rcht": 6174,
      "ĠfÃ¼rchter": 6175,
      "ppert": 6176,
      "ppetit": 6177,
      "ĠHerrschaft": 6178,
      "ĠVers": 6179,
      "Ã¼hre": 6180,
      "Ġbeides": 6181,
      "innst": 6182,
      "Ġleis": 6183,
      "Ġklass": 6184,
      "Ġklugen": 6185,
      "Ġklopft": 6186,
      "ĠSchwÃ¤ne": 6187,
      "Ġgeneigt": 6188,
      "ĠSpott": 6189,
      "ĠSpiele": 6190,
      "ĠPfl": 6191,
      "ĠPfand": 6192,
      "ĠPfaden": 6193,
      "ienten": 6194,
      "Ġpreist": 6195,
      "ĠUnsinn": 6196,
      "Ġgleiche": 6197,
      "Ã¼tig": 6198,
      "Ã¼ttern": 6199,
      "Ġdennoch": 6200,
      "lauf": 6201,
      "laufen": 6202,
      "Ġvielgelieb": 6203,
      "ĠWeisen": 6204,
      "ĠWeibe": 6205,
      "ohnen": 6206,
      "Ġgeschrieben": 6207,
      "Ġgescholten": 6208,
      "ĠgeschÃ¤ftig": 6209,
      "ĠKÃ¶niges": 6210,
      "Werd": 6211,
      "Werden": 6212,
      "Ġgesagt": 6213,
      "ĠGesichter": 6214,
      "Ġgebieten": 6215,
      "eere": 6216,
      "Ġganzer": 6217,
      "ĠSee": 6218,
      "getzen": 6219,
      "getÃ¼m": 6220,
      "Ġfrischen": 6221,
      "ammeln": 6222,
      "ĠreiÃŁen": 6223,
      "Ġreicher": 6224,
      "Ġvolles": 6225,
      "Ġvollem": 6226,
      "Ġvollendet": 6227,
      "ĠvollfÃ¼hren": 6228,
      "ĠbloÃŁ": 6229,
      "Ġblendet": 6230,
      "Ġblicken": 6231,
      "ĠblÃ¤ht": 6232,
      "Ġblinkend": 6233,
      "ĠHÃ¶h": 6234,
      "ĠReiher": 6235,
      "blut": 6236,
      "sprechen": 6237,
      "qual": 6238,
      "Ġheiligem": 6239,
      "gebnen": 6240,
      "ĠFelder": 6241,
      "ISEN": 6242,
      "ĠHaut": 6243,
      "ĠHaufen": 6244,
      "Ġgelegt": 6245,
      "Ġallenfalls": 6246,
      "Umf": 6247,
      "Umgibt": 6248,
      "Ġabermals": 6249,
      "Ġbergen": 6250,
      "ĠRed": 6251,
      "ĠRegen": 6252,
      "ĠRechten": 6253,
      "Ġverscheucht": 6254,
      "ĠMuth": 6255,
      "Ġverlang": 6256,
      "Ġverletzt": 6257,
      "Ġschaudert": 6258,
      "ĠUly": 6259,
      "Ġeile": 6260,
      "Ġeigne": 6261,
      "Ġfindest": 6262,
      "flung": 6263,
      "wegt": 6264,
      "geschick": 6265,
      "Ġtiefem": 6266,
      "Ġtiefste": 6267,
      "Bek": 6268,
      "Bege": 6269,
      "gewicht": 6270,
      "gewÃ¶l": 6271,
      "Ġschnelle": 6272,
      "Ġgeheim": 6273,
      "Ġgeheilt": 6274,
      "ĠLiebsten": 6275,
      "Steigt": 6276,
      "StÃ¼rzt": 6277,
      "Ã¤hre": 6278,
      "ĠKlippen": 6279,
      "Entw": 6280,
      "riffen": 6281,
      "Ġschlingt": 6282,
      "ĠschloÃŁ": 6283,
      "Ġschlimmer": 6284,
      "rÃ¶hnen": 6285,
      "rÃ¶ÃŁe": 6286,
      "ĠSinnes": 6287,
      "Ġverwahrt": 6288,
      "Ġverwandt": 6289,
      "Ġfesten": 6290,
      "ĠPlatze": 6291,
      "ĠLandes": 6292,
      "Ġverbunden": 6293,
      "Ġverbirgt": 6294,
      "Ġeurer": 6295,
      "ĠschmÃ¼cken": 6296,
      "Ġschmerz": 6297,
      "ĠschmÃ¤h": 6298,
      "ĠAngst": 6299,
      "ĠAnkunft": 6300,
      "Unsrer": 6301,
      "Ġerfrisch": 6302,
      "ĠerfÃ¼llen": 6303,
      "ĠHelm": 6304,
      "ĠThal": 6305,
      "ĠEine": 6306,
      "ĠEinen": 6307,
      "ĠglÃ¼ck": 6308,
      "Ġvertan": 6309,
      "Ġvertrauen": 6310,
      "Ġzersch": 6311,
      "Ġzerrei": 6312,
      "Ġbeschreiben": 6313,
      "ĠbeschÃ¼tzen": 6314,
      "ĠBege": 6315,
      "ĠBeweg": 6316,
      "ĠBefehl": 6317,
      "ĠGebein": 6318,
      "ĠGebet": 6319,
      "ĠGebot": 6320,
      "schlug": 6321,
      "schlÃ¤gt": 6322,
      "ĠFreundschaft": 6323,
      "Ġschwerer": 6324,
      "Ġrasche": 6325,
      "Ġfliehn": 6326,
      "Ġfliegt": 6327,
      "ĠInst": 6328,
      "ĠInsel": 6329,
      "Ġhalben": 6330,
      "ĠkÃ¼hne": 6331,
      "Ġbegann": 6332,
      "Ġbegraben": 6333,
      "Ã¤ngstlich": 6334,
      "ĠLebensf": 6335,
      "ĠQuellen": 6336,
      "ĠwÃ¼rden": 6337,
      "Ã¤use": 6338,
      "Ã¤uschen": 6339,
      "ĠLichter": 6340,
      "REKT": 6341,
      "onders": 6342,
      "ĠIdol": 6343,
      "Ġholen": 6344,
      "Ġholder": 6345,
      "Ġleb": 6346,
      "Ġlobt": 6347,
      "Ġlodert": 6348,
      "ĠVorwelt": 6349,
      "gemacht": 6350,
      "gemÃ¤ÃŁ": 6351,
      "Ã¤chern": 6352,
      "ĠversÃ¶hnt": 6353,
      "Ġbefreien": 6354,
      "ĠChr": 6355,
      "ĠgrÃ¼ne": 6356,
      "ĠgrÃ¼nt": 6357,
      "ĠgrÃ¼ÃŁen": 6358,
      "Ġverdamm": 6359,
      "Ġtrete": 6360,
      "Ġdarauf": 6361,
      "Ġdarnach": 6362,
      "DERSEL": 6363,
      "Ġwahren": 6364,
      "Ġwahrer": 6365,
      "ĠGelÃ¼st": 6366,
      "Ġreiner": 6367,
      "Ġreines": 6368,
      "Ġreinlich": 6369,
      "Ġwelchem": 6370,
      "Ġergossen": 6371,
      "Ġergreifen": 6372,
      "Ġtausendfach": 6373,
      "reiflich": 6374,
      "ĠDiensten": 6375,
      "Ġfrischer": 6376,
      "Ġfrischem": 6377,
      "Geschw": 6378,
      "ĠĠĠĠĠĠĠĠĠĠĠĠĠĠĠĠĠĠĠĠĠĠĠĠĠĠĠĠĠĠĠ": 6379,
      "Ġbeleben": 6380,
      "Ġbelehren": 6381,
      "Ġbeliebt": 6382,
      "ĠWeges": 6383,
      "ĠSternen": 6384,
      "ĠTrauer": 6385,
      "ĠTrauben": 6386,
      "Ġgesteh": 6387,
      "Ġgestanden": 6388,
      "ĠÃ¼ben": 6389,
      "Ġrauh": 6390,
      "Ġfehlte": 6391,
      "ĠWiese": 6392,
      "Ġlauern": 6393,
      "ĠverstÃ¤ndig": 6394,
      "Ġentfaltet": 6395,
      "Ġird": 6396,
      "Ġirren": 6397,
      "Ġirrt": 6398,
      "ĠgemÃ¤ÃŁ": 6399,
      "ĠerhÃ¶ht": 6400,
      "ĠTrost": 6401,
      "ĠverkÃ¼ndet": 6402,
      "ĠEntschluÃŁ": 6403,
      "ĠZauberei": 6404,
      "Ġflache": 6405,
      "Ġempfind": 6406,
      "kommt": 6407,
      "ĠwÃ¼nsch": 6408,
      "ĠwÃ¼nschen": 6409,
      "ĠwÃ¼nsche": 6410,
      "Ġgrillen": 6411,
      "ĠhÃ¤ltst": 6412,
      "Ġleuchten": 6413,
      "Ġfremde": 6414,
      "Ġfremdes": 6415,
      "Ġeher": 6416,
      "Ġquer": 6417,
      "ĠquÃ¤len": 6418,
      "ĠNeptun": 6419,
      "Ġnehme": 6420,
      "ĠHades": 6421,
      "ĠBessers": 6422,
      "ĠfrÃ¼her": 6423,
      "Ġbekennen": 6424,
      "Ġbewegen": 6425,
      "GewÃ¶hnlich": 6426,
      "asses": 6427,
      "Ġzwingen": 6428,
      "Ġjunger": 6429,
      "ĠZweig": 6430,
      "ĠZweigen": 6431,
      "Ġletztenmal": 6432,
      "ĠrÃ¼hrt": 6433,
      "Ã¤monen": 6434,
      "ĠGliedern": 6435,
      "ĠLÃ¼ften": 6436,
      "ĠEurem": 6437,
      "ĠEurotas": 6438,
      "Ġthut": 6439,
      "ĠwÃ¼ten": 6440,
      "Ġwandle": 6441,
      "Ġfragst": 6442,
      "Ġerlangt": 6443,
      "recke": 6444,
      "Ġreichlich": 6445,
      "appt": 6446,
      "hÃ¼lle": 6447,
      "wÃ¼rdige": 6448,
      "Ġerkennt": 6449,
      "Ġerkannt": 6450,
      "ĠverfÃ¼hr": 6451,
      "Ġtrennte": 6452,
      "Gehor": 6453,
      "ĠGeheimniÃŁ": 6454,
      "ĠFreier": 6455,
      "ĠSchneider": 6456,
      "ĠtrÃ¼ben": 6457,
      "Ġschwarze": 6458,
      "Gefangen": 6459,
      "Hinter": 6460,
      "Solang": 6461,
      "Ġgnug": 6462,
      "ĠgnÃ¼gt": 6463,
      "ĠGrimm": 6464,
      "ĠParzen": 6465,
      "ĠZwer": 6466,
      "ĠZwist": 6467,
      "ĠZwerg": 6468,
      "Ġliebevoll": 6469,
      "ĠLiebesb": 6470,
      "ĠFlÃ¼geln": 6471,
      "ĠGemÃ¼te": 6472,
      "Ġerbaut": 6473,
      "Ġunbed": 6474,
      "Ġunbek": 6475,
      "Herrlich": 6476,
      "ĠNachbarin": 6477,
      "BeschÃ¤mt": 6478,
      "ĠKohle": 6479,
      "altete": 6480,
      "Ġklaren": 6481,
      "ĠJÃ¼nglings": 6482,
      "FÃ¼hlst": 6483,
      "Liegt": 6484,
      "MMERER": 6485,
      "ĠGetÃ¶se": 6486,
      "Ġerwarten": 6487,
      "ĠFalle": 6488,
      "ĠKrieger": 6489,
      "ĠSchranken": 6490,
      "ĠSchritte": 6491,
      "ĠGluth": 6492,
      "Entferne": 6493,
      "ĠschlÃ¤ft": 6494,
      "Ġrief": 6495,
      "Ġrieseln": 6496,
      "eugten": 6497,
      "ĠAller": 6498,
      "ĠPuppen": 6499,
      "Ġverschlungen": 6500,
      "ĠglÃ¤nzend": 6501,
      "ĠQualen": 6502,
      "GlÃ¼cklich": 6503,
      "hafte": 6504,
      "ĠÃ¤g": 6505,
      "ĠÃľberredung": 6506,
      "Ġdringend": 6507,
      "eitert": 6508,
      "ĠseitwÃ¤rts": 6509,
      "ĠGrÃ¼nden": 6510,
      "ĠHÃ¼lf": 6511,
      "ĠBetrug": 6512,
      "Ġgegangen": 6513,
      "Ġgekannt": 6514,
      "Ġplatzt": 6515,
      "zutragen": 6516,
      "ĠÃ¶fter": 6517,
      "ĠdÃ¼rft": 6518,
      "ĠgÃ¶ttlich": 6519,
      "Ġhunderttausend": 6520,
      "ĠSÃ¤ulen": 6521,
      "Ġbemer": 6522,
      "ĠbemÃ¼": 6523,
      "ĠWandrer": 6524,
      "ĠTanze": 6525,
      "ĠTiefsten": 6526,
      "ĠAltare": 6527,
      "Ġnennst": 6528,
      "Ġbringst": 6529,
      "Ġfeindlich": 6530,
      "Ġfeierlich": 6531,
      "ĠMÃ¼h": 6532,
      "ĠKleider": 6533,
      "ĠKleide": 6534,
      "Ġmancherlei": 6535,
      "Ã¤ttchen": 6536,
      "Ġleidige": 6537,
      "Niemand": 6538,
      "Ġdeutschen": 6539,
      "Ġsanft": 6540,
      "Ġsanften": 6541,
      "ĠgÃ¼nstig": 6542,
      "ĠBÃ¤chen": 6543,
      "Ġalsobald": 6544,
      "Ġblutig": 6545,
      "ĠIrr": 6546,
      "wÃ¼rdiger": 6547,
      "zÃ¤hl": 6548,
      "Ġdunkle": 6549,
      "Ġmelde": 6550,
      "ĠSphinx": 6551,
      "ĠGrÃ¤ber": 6552,
      "ĠHaaren": 6553,
      "Ġkindisch": 6554,
      "ĠDiane": 6555,
      "isset": 6556,
      "ANDRER": 6557,
      "ĠLeidenschaft": 6558,
      "ĠbetrÃ¼ben": 6559,
      "ĠGebÃ¤rden": 6560,
      "WÃ¼rdig": 6561,
      "rungene": 6562,
      "Ġwachsen": 6563,
      "Ġmerke": 6564,
      "ĠGaler": 6565,
      "Ġerquick": 6566,
      "ĠTafel": 6567,
      "ĠZukunft": 6568,
      "Erhab": 6569,
      "ĠHerrscherin": 6570,
      "ĠGeschmack": 6571,
      "ĠGeschmeide": 6572,
      "ĠBegierde": 6573,
      "Besonders": 6574,
      "Ġsegnet": 6575,
      "ĠmÃ¼ÃŁte": 6576,
      "Ġfurchtsam": 6577,
      "ĠTauris": 6578,
      "ĠKÃ¼che": 6579,
      "ĠProteus": 6580,
      "Verschwindet": 6581,
      "Ġwillkommner": 6582,
      "ĠGesprÃ¤ch": 6583,
      "Ġverschwunden": 6584,
      "Ġschmeichelnd": 6585,
      "Eilet": 6586,
      "ĠnÃ¤chsten": 6587,
      "ĠWalpurgisnacht": 6588,
      "Ġerweitert": 6589,
      "ĠFrist": 6590,
      "ĠungestÃ¶rt": 6591,
      "rudelnd": 6592,
      "Erkennst": 6593,
      "Ġbedenklich": 6594,
      "Vermag": 6595,
      "ĠJungfrau": 6596,
      "ĠSchlÃ¤fe": 6597,
      "ĠKniee": 6598,
      "ĠÃ¼brigb": 6599,
      "Juchhe": 6600,
      "Juchheisa": 6601,
      "SPHINX": 6602,
      "SPHINXE": 6603,
      "uhigt": 6604,
      "Ġzarte": 6605,
      "Ġzubereiten": 6606,
      "Ġschrecklich": 6607,
      "Ġerproben": 6608,
      "ĠBÃ¼rger": 6609,
      "ĠMycen": 6610,
      "ĠKeller": 6611,
      "Ġverzeih": 6612,
      "ĠPatron": 6613,
      "Ġblendend": 6614,
      "Ġbegleiten": 6615,
      "Ġbegleitet": 6616,
      "ĠGeliebte": 6617,
      "ĠGeliebten": 6618,
      "Ġarmes": 6619,
      "ĠglÃ¼hende": 6620,
      "Ġringsumher": 6621,
      "Vierter": 6622,
      "Ġwechselt": 6623,
      "ĠSkla": 6624,
      "ĠSehnen": 6625,
      "ĠHÃ¼tte": 6626,
      "ĠFolge": 6627,
      "ĠTitanen": 6628,
      "ĠTausenden": 6629,
      "ĠSchÃ¤del": 6630,
      "Ġverpflichtet": 6631,
      "ĠErinner": 6632,
      "ĠApoll": 6633,
      "Ġanzufangen": 6634,
      "ĠPerlen": 6635,
      "ĠPergament": 6636,
      "ĠNordens": 6637,
      "Erinnert": 6638,
      "Verschwunden": 6639,
      "Ġwohlgemut": 6640,
      "ĠUnbekannten": 6641,
      "Ġblickst": 6642,
      "quickung": 6643,
      "ĠSchmeichel": 6644,
      "ĠKlugheit": 6645,
      "ĠErdensohn": 6646,
      "ĠParadiese": 6647,
      "Ġahnungsvoller": 6648,
      "Bringst": 6649,
      "Felsen": 6650,
      "MÃĦDCHEN": 6651,
      "ĠsÃ¤useln": 6652,
      "ĠsÃ¤mtlich": 6653,
      "ĠwuÃŁte": 6654,
      "ĠhÃ¤ÃŁlich": 6655,
      "Ġzufrieden": 6656,
      "Ġfeurig": 6657,
      "geweihten": 6658,
      "ĠWÃ¼nsche": 6659,
      "Ġerfleh": 6660,
      "ĠMÃ¤rchen": 6661,
      "ĠungesÃ¤umt": 6662,
      "ĠRohr": 6663,
      "LEMUREN": 6664,
      "ĠZepter": 6665,
      "ĠStÃ¤dte": 6666,
      "glÃ¤nzt": 6667,
      "ĠGefangnen": 6668,
      "EntzÃ¼ndet": 6669,
      "Ġzerronnen": 6670,
      "ĠFrÃ¼hlings": 6671,
      "DIREKT": 6672,
      "Nebel": 6673,
      "Ġfertig": 6674,
      "ĠFarben": 6675,
      "ĠMelod": 6676,
      "ĠMarthe": 6677,
      "ĠKlÃ¼fte": 6678,
      "ĠSchleier": 6679,
      "Ġungeduldig": 6680,
      "ĠANDRER": 6681,
      "ĠDÃ¤mmrung": 6682,
      "ĠVlies": 6683,
      "ĠZeugnis": 6684,
      "Ġbezeichnet": 6685,
      "Ġrettend": 6686,
      "ĠVerrÃ¤ther": 6687,
      "ĠVerzweiflung": 6688,
      "Ġwiederkehrend": 6689,
      "Ġgeschenkt": 6690,
      "zuspÃ¼ren": 6691,
      "ĠGeschwistern": 6692,
      "BEIDE": 6693,
      "BÃĸSER": 6694,
      "DICHTER": 6695,
      "KÃĦMMERER": 6696,
      "RRLICH": 6697,
      "ĠIphigenien": 6698,
      "Ġdesto": 6699,
      "ĠSiby": 6700,
      "ĠGrenze": 6701,
      "ĠGattin": 6702,
      "ĠBÃ¤chlein": 6703,
      "ĠTEIL": 6704,
      "ĠKabiren": 6705,
      "ĠSchÃ¼ler": 6706,
      "ĠSchÃ¶pfung": 6707,
      "Ġunaufhalt": 6708,
      "ĠEllenbogen": 6709,
      "ĠOffenbar": 6710,
      "ĠJunker": 6711,
      "DERSELBE": 6712,
      "DIREKTOR": 6713,
      "!\"": 6714,
      "'--": 6715,
      "))": 6716,
      "-,": 6717,
      ";--": 6718,
      "AB": 6719,
      "Ap": 6720,
      "APHI": 6721,
      "Bring": 6722,
      "Behende": 6723,
      "BÃľRGER": 6724,
      "DR": 6725,
      "Dan": 6726,
      "Deine": 6727,
      "DORI": 6728,
      "Et": 6729,
      "Fe": 6730,
      "FaÃŁt": 6731,
      "FTER": 6732,
      "Fasse": 6733,
      "Frosch": 6734,
      "Gi": 6735,
      "Grau": 6736,
      "GrÃ¤": 6737,
      "GlÃ¼": 6738,
      "Ging": 6739,
      "Gold": 6740,
      "Gele": 6741,
      "Gabst": 6742,
      "He": 6743,
      "Hei": 6744,
      "HÃ¼": 6745,
      "Hor": 6746,
      "Hal": 6747,
      "Hol": 6748,
      "HAL": 6749,
      "Himmel": 6750,
      "HÃ¼l": 6751,
      "Hilf": 6752,
      "IA": 6753,
      "IM": 6754,
      "IGE": 6755,
      "Indes": 6756,
      "IRRLICH": 6757,
      "Jung": 6758,
      "Jed": 6759,
      "JUN": 6760,
      "KR": 6761,
      "Keinen": 6762,
      "Konnt": 6763,
      "Lassen": 6764,
      "Laut": 6765,
      "LÃ¶s": 6766,
      "MPH": 6767,
      "MIST": 6768,
      "Meer": 6769,
      "Merk": 6770,
      "Meister": 6771,
      "MÃ¤dchen": 6772,
      "NY": 6773,
      "Nenn": 6774,
      "Neug": 6775,
      "Pl": 6776,
      "PUS": 6777,
      "PAN": 6778,
      "PhÃ¶": 6779,
      "PAGE": 6780,
      "Rie": 6781,
      "RAU": 6782,
      "Ruf": 6783,
      "Riegel": 6784,
      "Regt": 6785,
      "Sal": 6786,
      "Sehr": 6787,
      "Such": 6788,
      "Sehn": 6789,
      "Seine": 6790,
      "Sitz": 6791,
      "Sage": 6792,
      "SOL": 6793,
      "Tut": 6794,
      "Teil": 6795,
      "TOR": 6796,
      "TEN": 6797,
      "TNER": 6798,
      "Tret": 6799,
      "Trug": 6800,
      "TÃ¶nen": 6801,
      "UND": 6802,
      "VEN": 6803,
      "Volk": 6804,
      "Viele": 6805,
      "Wahr": 6806,
      "Wild": 6807,
      "Wunder": 6808,
      "WÃ¼ÃŁ": 6809,
      "Weder": 6810,
      "Womit": 6811,
      "Zus": 6812,
      "Zeigt": 6813,
      "Zog": 6814,
      "Zuletzt": 6815,
      "ac": 6816,
      "abt": 6817,
      "aht": 6818,
      "aart": 6819,
      "ahnen": 6820,
      "ahle": 6821,
      "aften": 6822,
      "bru": 6823,
      "buch": 6824,
      "bold": 6825,
      "baum": 6826,
      "biert": 6827,
      "bringen": 6828,
      "breite": 6829,
      "bÃ¼rt": 6830,
      "bilder": 6831,
      "cul": 6832,
      "dich": 6833,
      "dre": 6834,
      "delt": 6835,
      "dringen": 6836,
      "drÃ¤ngt": 6837,
      "ekt": 6838,
      "eers": 6839,
      "fend": 6840,
      "feln": 6841,
      "falt": 6842,
      "feuer": 6843,
      "frauen": 6844,
      "feste": 6845,
      "flichkeit": 6846,
      "fÃ¼lle": 6847,
      "gau": 6848,
      "gste": 6849,
      "gers": 6850,
      "gold": 6851,
      "gliche": 6852,
      "hau": 6853,
      "handen": 6854,
      "hundert": 6855,
      "ius": 6856,
      "impf": 6857,
      "jauch": 6858,
      "kk": 6859,
      "kn": 6860,
      "kal": 6861,
      "kos": 6862,
      "krÃ¤n": 6863,
      "kad": 6864,
      "kragen": 6865,
      "kelnd": 6866,
      "kreise": 6867,
      "kais": 6868,
      "kuren": 6869,
      "lÃ¼ckt": 6870,
      "mÃ¤": 6871,
      "mar": 6872,
      "maÃŁ": 6873,
      "mung": 6874,
      "macht": 6875,
      "mus": 6876,
      "meister": 6877,
      "mord": 6878,
      "naÃŁ": 6879,
      "neben": 6880,
      "nug": 6881,
      "nÃ¼rt": 6882,
      "off": 6883,
      "open": 6884,
      "ohrt": 6885,
      "py": 6886,
      "pelt": 6887,
      "pert": 6888,
      "rischen": 6889,
      "rissen": 6890,
      "rochen": 6891,
      "ses": 6892,
      "sÃ¤": 6893,
      "sest": 6894,
      "sgeb": 6895,
      "singt": 6896,
      "smann": 6897,
      "tÃ¤n": 6898,
      "trer": 6899,
      "tanzen": 6900,
      "thron": 6901,
      "ui": 6902,
      "uk": 6903,
      "uy": 6904,
      "uz": 6905,
      "uter": 6906,
      "udel": 6907,
      "vo": 6908,
      "ven": 6909,
      "val": 6910,
      "vis": 6911,
      "viel": 6912,
      "wel": 6913,
      "was": 6914,
      "wut": 6915,
      "weit": 6916,
      "wend": 6917,
      "wacht": 6918,
      "wohn": 6919,
      "wagen": 6920,
      "wunder": 6921,
      "wogen": 6922,
      "worte": 6923,
      "yl": 6924,
      "ykl": 6925,
      "ypr": 6926,
      "zo": 6927,
      "zir": 6928,
      "zelt": 6929,
      "zige": 6930,
      "zeiten": 6931,
      "zÃ¼gen": 6932,
      "zahl": 6933,
      "zimmer": 6934,
      "zÃ¼glich": 6935,
      "zunehmen": 6936,
      "Ġ4": 6937,
      "Ġenn": 6938,
      "Ġreu": 6939,
      "ĠÃ¤r": 6940,
      "ĠIphigenie": 6941,
      "ĠÃ¤ch": 6942,
      "ĠÃĸ": 6943,
      "ĠCHÃĸ": 6944,
      "chs": 6945,
      "chster": 6946,
      "err": 6947,
      "erte": 6948,
      "eral": 6949,
      "erle": 6950,
      "erzt": 6951,
      "erlegt": 6952,
      "Ġdi": 6953,
      "Ġdun": 6954,
      "ĠdrÃ¤n": 6955,
      "ĠdÃ¤mm": 6956,
      "Ġdienen": 6957,
      "ĠdrÃ¼ben": 6958,
      "eisten": 6959,
      "eiÃŁt": 6960,
      "einde": 6961,
      "eidet": 6962,
      "Ġsil": 6963,
      "Ġsitt": 6964,
      "Ġsetz": 6965,
      "Ġsaub": 6966,
      "Ġsinne": 6967,
      "Ġsuche": 6968,
      "Ġsechs": 6969,
      "iede": 6970,
      "iehen": 6971,
      "iche": 6972,
      "ndet": 6973,
      "stimm": 6974,
      "sturz": 6975,
      "streif": 6976,
      "stock": 6977,
      "stimmen": 6978,
      "Ġwein": 6979,
      "Ġwend": 6980,
      "Ġweben": 6981,
      "Ġwil": 6982,
      "Ġwebt": 6983,
      "Ġwessen": 6984,
      "Ġwinkt": 6985,
      "ĠwÃ¼hlt": 6986,
      "esie": 6987,
      "Ġmo": 6988,
      "Ġmar": 6989,
      "Ġmis": 6990,
      "Ġmilde": 6991,
      "Ġmessen": 6992,
      "Ġmischt": 6993,
      "Ġmuster": 6994,
      "Ġahne": 6995,
      "Ġappetit": 6996,
      "Ã¼s": 6997,
      "Ã¼men": 6998,
      "Ã¼hnen": 6999,
      "Ã¼mpf": 7000,
      "Ã¼stet": 7001,
      "Ġindem": 7002,
      "Ġgei": 7003,
      "Ġgrie": 7004,
      "Ġgaben": 7005,
      "Ġgreife": 7006,
      "elter": 7007,
      "elbar": 7008,
      "elnden": 7009,
      "Ġneigt": 7010,
      "Ġnord": 7011,
      "ĠnÃ¤hrt": 7012,
      "Ġneige": 7013,
      "Ġhem": 7014,
      "ĠhÃ¤n": 7015,
      "Ġhausen": 7016,
      "ĠhÃ¼l": 7017,
      "ĠhÃ¤us": 7018,
      "Ġhebe": 7019,
      "Ġhindert": 7020,
      "Ġhimmlischen": 7021,
      "Ã¤g": 7022,
      "Ã¤ck": 7023,
      "Ã¤hen": 7024,
      "Ã¤her": 7025,
      "Ã¤chte": 7026,
      "Ã¤ischen": 7027,
      "Ã¤hle": 7028,
      "asch": 7029,
      "assel": 7030,
      "ĠSei": 7031,
      "ĠSein": 7032,
      "ĠSte": 7033,
      "ĠSER": 7034,
      "ĠSaum": 7035,
      "ĠSausen": 7036,
      "ĠSEL": 7037,
      "ĠSitze": 7038,
      "ĠSÃ¼nde": 7039,
      "ĠSCHÃĸ": 7040,
      "anst": 7041,
      "anget": 7042,
      "llst": 7043,
      "llte": 7044,
      "ins": 7045,
      "Ġzeit": 7046,
      "Ġzehn": 7047,
      "Ġzerk": 7048,
      "Ġzehrt": 7049,
      "Ġzeich": 7050,
      "Ġzeige": 7051,
      "Ġzahm": 7052,
      "Ġzittert": 7053,
      "Ġzahlen": 7054,
      "ÃŁig": 7055,
      "ÃŁend": 7056,
      "iron": 7057,
      "irren": 7058,
      "irgend": 7059,
      "irschen": 7060,
      "Ġbehen": 7061,
      "ĠbÃ¼ckt": 7062,
      "Ġbitter": 7063,
      "Ġbilde": 7064,
      "Ġbinden": 7065,
      "Ġbrechen": 7066,
      "Ġblieb": 7067,
      "Ġbitten": 7068,
      "Ġbauen": 7069,
      "Ġballt": 7070,
      "Ġborgt": 7071,
      "Ġbieten": 7072,
      "ĠbrÃ¤un": 7073,
      "ĠbÃ¤ndigt": 7074,
      "ĠGÃ¤": 7075,
      "ĠGar": 7076,
      "ĠGra": 7077,
      "ĠGÃ¤n": 7078,
      "ĠGanz": 7079,
      "ĠGEN": 7080,
      "ĠGange": 7081,
      "ĠGÃ¤rt": 7082,
      "ĠGÃ¼rt": 7083,
      "ĠGÃ¤nge": 7084,
      "ĠGute": 7085,
      "ĠGram": 7086,
      "ĠGrÃ¶ÃŁe": 7087,
      "ĠGuter": 7088,
      "auft": 7089,
      "aune": 7090,
      "aulen": 7091,
      "tete": 7092,
      "genschn": 7093,
      "genehm": 7094,
      "ement": 7095,
      "Ã¶ck": 7096,
      "Ã¶bus": 7097,
      "Ġzustand": 7098,
      "Ġzuerst": 7099,
      "Ġzulieb": 7100,
      "Ġzugewendet": 7101,
      "Ġzugut": 7102,
      "Ġficht": 7103,
      "Ġfeil": 7104,
      "ĠfÃ¼n": 7105,
      "Ġfing": 7106,
      "Ġflicht": 7107,
      "ĠfÃ¼gen": 7108,
      "ĠfÃ¶rder": 7109,
      "Ġfrucht": 7110,
      "Ġfarb": 7111,
      "Ġfunkelt": 7112,
      "gedehn": 7113,
      "Ġderb": 7114,
      "ĠHat": 7115,
      "ĠHohn": 7116,
      "ĠHelle": 7117,
      "ĠHeim": 7118,
      "ĠHundert": 7119,
      "ĠHÃ¤us": 7120,
      "ĠHalb": 7121,
      "ĠHeide": 7122,
      "ĠHans": 7123,
      "Ġscheu": 7124,
      "Ġschal": 7125,
      "Ġschla": 7126,
      "Ġschuf": 7127,
      "Ġschul": 7128,
      "Ġschallen": 7129,
      "Ġscherzen": 7130,
      "ĠschÃ¤umt": 7131,
      "Ġschreckt": 7132,
      "Ġschroffen": 7133,
      "ĠschÃ¤ndlich": 7134,
      "Ġschadet": 7135,
      "arr": 7136,
      "arrer": 7137,
      "Ġeinge": 7138,
      "Ġeinzu": 7139,
      "Ġeinger": 7140,
      "Ġeingew": 7141,
      "Ġeinigem": 7142,
      "ore": 7143,
      "orbe": 7144,
      "orner": 7145,
      "itisch": 7146,
      "itÃ¤t": 7147,
      "ĠWen": 7148,
      "ĠWÃ¤n": 7149,
      "ĠWund": 7150,
      "ĠWalten": 7151,
      "ĠWunden": 7152,
      "ĠWÃ¶l": 7153,
      "ĠWilde": 7154,
      "ĠWinden": 7155,
      "ĠWander": 7156,
      "ĠWittern": 7157,
      "ĠWinde": 7158,
      "ĠWare": 7159,
      "ĠWachs": 7160,
      "ĠWetterl": 7161,
      "ĠWappen": 7162,
      "ĠWarum": 7163,
      "eul": 7164,
      "euers": 7165,
      "schchen": 7166,
      "schle": 7167,
      "schatz": 7168,
      "scheiden": 7169,
      "schaun": 7170,
      "schrift": 7171,
      "schaften": 7172,
      "onis": 7173,
      "Ġerle": 7174,
      "Ġerse": 7175,
      "Ġerlau": 7176,
      "Ġerret": 7177,
      "ĠerÃ¶ff": 7178,
      "Ġnichten": 7179,
      "ĠlÃ¶": 7180,
      "Ġlacht": 7181,
      "Ġladen": 7182,
      "ĠlÃ¼gen": 7183,
      "Ġlasse": 7184,
      "Ġlenk": 7185,
      "ĠlÃ¶se": 7186,
      "ĠlÃ¼gt": 7187,
      "Ġlichte": 7188,
      "Ġlehret": 7189,
      "ĠFern": 7190,
      "ĠFisch": 7191,
      "ĠFlie": 7192,
      "ĠFÃ¼n": 7193,
      "ĠFalten": 7194,
      "ĠFrÃ¶": 7195,
      "ĠFett": 7196,
      "ĠFrost": 7197,
      "ĠFasten": 7198,
      "ĠFesseln": 7199,
      "ĠFeuers": 7200,
      "ĠBau": 7201,
      "ĠBrei": 7202,
      "ĠBrÃ¤": 7203,
      "ĠBall": 7204,
      "ĠBeut": 7205,
      "ĠBÃ¼ÃŁ": 7206,
      "ĠBret": 7207,
      "ĠBilde": 7208,
      "ĠBinden": 7209,
      "ĠBÃ¶se": 7210,
      "ĠBildern": 7211,
      "ĠBuÃŁe": 7212,
      "ckten": 7213,
      "ckend": 7214,
      "Ġkeu": 7215,
      "ĠkÃ¶nig": 7216,
      "Ġklagen": 7217,
      "Ġkrat": 7218,
      "ĠkÃ¤m": 7219,
      "Ġkochen": 7220,
      "Ġkrab": 7221,
      "Ġkrumm": 7222,
      "igung": 7223,
      "igster": 7224,
      "chtern": 7225,
      "ure": 7226,
      "urus": 7227,
      "urren": 7228,
      "urme": 7229,
      "hneg": 7230,
      "ĠMich": 7231,
      "ĠMill": 7232,
      "ĠMÃ¼ck": 7233,
      "ĠMang": 7234,
      "ĠMAR": 7235,
      "ĠMaus": 7236,
      "ĠMamm": 7237,
      "ĠMÃ¤cht": 7238,
      "ĠMilde": 7239,
      "ĠMahl": 7240,
      "ĠMete": 7241,
      "ĠMÃ¼ttern": 7242,
      "ĠMisset": 7243,
      "ĠMeers": 7244,
      "ĠTun": 7245,
      "ĠTra": 7246,
      "ĠTÃ¤n": 7247,
      "ĠToll": 7248,
      "ĠTell": 7249,
      "ĠTieren": 7250,
      "ĠTauben": 7251,
      "ĠTÃ¼cht": 7252,
      "ĠTaschen": 7253,
      "ĠTrÃ¼mm": 7254,
      "bens": 7255,
      "ĠKe": 7256,
      "ĠKre": 7257,
      "ĠKol": 7258,
      "ĠKru": 7259,
      "ĠKom": 7260,
      "ĠKast": 7261,
      "ĠKrÃ¶": 7262,
      "ĠKret": 7263,
      "ĠKett": 7264,
      "ĠKÃ¼hn": 7265,
      "ĠKÃ¶pfe": 7266,
      "ĠKatzen": 7267,
      "ĠSchei": 7268,
      "ĠSchut": 7269,
      "ĠSchall": 7270,
      "ĠSchild": 7271,
      "ĠScheiter": 7272,
      "ĠSchatze": 7273,
      "ĠSchilf": 7274,
      "ĠSchrift": 7275,
      "ĠScherben": 7276,
      "ochnen": 7277,
      "ĠLehn": 7278,
      "ĠLetz": 7279,
      "ĠLachen": 7280,
      "ĠLock": 7281,
      "ĠLinde": 7282,
      "ĠLÃ¤nge": 7283,
      "ĠLehre": 7284,
      "ĠLumpen": 7285,
      "ĠLaute": 7286,
      "ĠLabyrinth": 7287,
      "ĠLorbe": 7288,
      "Ġverp": 7289,
      "Ġverein": 7290,
      "Ġverder": 7291,
      "Ġverwei": 7292,
      "Ġvergl": 7293,
      "Ġvergleich": 7294,
      "Ġvergn": 7295,
      "Ġverrat": 7296,
      "Ġverderben": 7297,
      "Ġverflucht": 7298,
      "Ġverzwei": 7299,
      "Ġvereinigt": 7300,
      "alisch": 7301,
      "lichs": 7302,
      "lichsten": 7303,
      "lichstes": 7304,
      "Ġgepf": 7305,
      "Ġgewei": 7306,
      "Ġgebar": 7307,
      "Ġunaus": 7308,
      "Ġungeb": 7309,
      "Ġunvor": 7310,
      "Ġungem": 7311,
      "Ġungef": 7312,
      "Ġunwillig": 7313,
      "Ġungeschickt": 7314,
      "Ġunvers": 7315,
      "reg": 7316,
      "rete": 7317,
      "reden": 7318,
      "reche": 7319,
      "Ġsond": 7320,
      "Ġsonder": 7321,
      "Ġsieden": 7322,
      "derte": 7323,
      "Ġinnen": 7324,
      "ĠEnd": 7325,
      "ĠEsel": 7326,
      "ĠEnden": 7327,
      "attet": 7328,
      "attern": 7329,
      "senkt": 7330,
      "ĠtÃ¶": 7331,
      "ĠtÃ¶n": 7332,
      "Ġtrie": 7333,
      "Ġtanz": 7334,
      "ĠtÃ¤t": 7335,
      "ĠtrÃ¶": 7336,
      "Ġtaub": 7337,
      "Ġteilt": 7338,
      "ĠtÃ¼cht": 7339,
      "ĠtÃ¶d": 7340,
      "ĠtÃ¤tig": 7341,
      "ĠtrÃ¤nken": 7342,
      "ennas": 7343,
      "indel": 7344,
      "indem": 7345,
      "ĠRÃ¤": 7346,
      "ĠRach": 7347,
      "ĠRom": 7348,
      "ĠRock": 7349,
      "ĠAs": 7350,
      "ĠAmt": 7351,
      "ĠAschen": 7352,
      "chens": 7353,
      "chenken": 7354,
      "ierer": 7355,
      "andte": 7356,
      "andet": 7357,
      "Ġangeb": 7358,
      "Ġangesch": 7359,
      "Ġangek": 7360,
      "Ġangezogen": 7361,
      "ĠanstÃ¤ndig": 7362,
      "Ġantik": 7363,
      "Ġangenehm": 7364,
      "eher": 7365,
      "ehst": 7366,
      "ehde": 7367,
      "ĠPy": 7368,
      "ĠPla": 7369,
      "ĠPall": 7370,
      "ĠPul": 7371,
      "ĠPech": 7372,
      "ĠPult": 7373,
      "ĠPlage": 7374,
      "ĠPÃ¶bel": 7375,
      "ĠPERS": 7376,
      "bereitet": 7377,
      "Ã¼rend": 7378,
      "rachten": 7379,
      "rafft": 7380,
      "ravo": 7381,
      "Ġaufgeb": 7382,
      "Ġaufgest": 7383,
      "Ġaufgeh": 7384,
      "Ġaufzur": 7385,
      "Ġauferlegt": 7386,
      "Ġunsers": 7387,
      "dest": 7388,
      "utzend": 7389,
      "olog": 7390,
      "olpert": 7391,
      "achsen": 7392,
      "achtend": 7393,
      "ĠDem": 7394,
      "ĠDenn": 7395,
      "ĠDann": 7396,
      "ĠDeut": 7397,
      "ĠDios": 7398,
      "ĠDonn": 7399,
      "ĠDampf": 7400,
      "ĠDÃ¼st": 7401,
      "ĠDES": 7402,
      "ĠDruck": 7403,
      "ĠDorf": 7404,
      "ĠDilett": 7405,
      "ĠDutzend": 7406,
      "OPHANTAS": 7407,
      "rauÃŁ": 7408,
      "raute": 7409,
      "Ġsti": 7410,
      "Ġsticht": 7411,
      "Ġstell": 7412,
      "Ġstellen": 7413,
      "Ġstreich": 7414,
      "ĠstÃ¶ren": 7415,
      "Ġstreben": 7416,
      "Ġsteige": 7417,
      "Ġstreicht": 7418,
      "ĠstoÃŁen": 7419,
      "rund": 7420,
      "ruhr": 7421,
      "rumen": 7422,
      "rumpf": 7423,
      "ruhig": 7424,
      "rudelt": 7425,
      "ĠNaschen": 7426,
      "ĠNahrung": 7427,
      "ĠName": 7428,
      "ĠVon": 7429,
      "ĠVier": 7430,
      "ĠViel": 7431,
      "ĠVieh": 7432,
      "ĠVettern": 7433,
      "ĠVenus": 7434,
      "estern": 7435,
      "ERMEISTER": 7436,
      "ĠZelle": 7437,
      "ĠZitter": 7438,
      "ĠZittern": 7439,
      "ĠZeilen": 7440,
      "ĠZeug": 7441,
      "ĠZiele": 7442,
      "ĠZeugen": 7443,
      "ĠZipfel": 7444,
      "ĠZÃ¤hne": 7445,
      "ĠStar": 7446,
      "ĠStra": 7447,
      "ĠStatt": 7448,
      "ĠStolz": 7449,
      "ĠStreich": 7450,
      "ĠStuhl": 7451,
      "ĠStrudel": 7452,
      "ĠStufe": 7453,
      "ĠStÃ¼hle": 7454,
      "ĠStÃ¼rmen": 7455,
      "ĠStellung": 7456,
      "ĠStrecke": 7457,
      "ĠStrauÃŁ": 7458,
      "Ġwohn": 7459,
      "Ġwoher": 7460,
      "btes": 7461,
      "AUER": 7462,
      "AUNE": 7463,
      "Sogar": 7464,
      "Sodann": 7465,
      "Erm": 7466,
      "Erlau": 7467,
      "Erget": 7468,
      "Erkl": 7469,
      "zene": 7470,
      "agd": 7471,
      "agert": 7472,
      "Ġbebt": 7473,
      "Ġbekl": 7474,
      "Ġbekommen": 7475,
      "Ġbedeckt": 7476,
      "ĠbeÃŁre": 7477,
      "eltsam": 7478,
      "ungs": 7479,
      "Ã¤nn": 7480,
      "Ã¤nke": 7481,
      "Ã¤nze": 7482,
      "Ã¤ngnis": 7483,
      "ĠHerm": 7484,
      "ĠHerein": 7485,
      "ĠHerden": 7486,
      "ĠHerrin": 7487,
      "ĠHerold": 7488,
      "ĠHerkunft": 7489,
      "reute": 7490,
      "beten": 7491,
      "Einen": 7492,
      "Einer": 7493,
      "Ġumd": 7494,
      "Ġumgeb": 7495,
      "Ġumgebracht": 7496,
      "Ġumschwebt": 7497,
      "ickeln": 7498,
      "isiert": 7499,
      "Ġhinger": 7500,
      "Ġhingew": 7501,
      "Ġhinunter": 7502,
      "pho": 7503,
      "pheus": 7504,
      "phÃ¤re": 7505,
      "ilgen": 7506,
      "immten": 7507,
      "immern": 7508,
      "immelt": 7509,
      "immert": 7510,
      "Ġvorm": 7511,
      "Ġvorn": 7512,
      "Ġvorher": 7513,
      "Ġvorzu": 7514,
      "ahrnen": 7515,
      "rÃ¼stet": 7516,
      "Verf": 7517,
      "Verkl": 7518,
      "Verweg": 7519,
      "Versamm": 7520,
      "Verwir": 7521,
      "Verfol": 7522,
      "Ã¶ret": 7523,
      "ellend": 7524,
      "Ġausge": 7525,
      "Ġausger": 7526,
      "Ġauszur": 7527,
      "CHE": 7528,
      "Ġwarf": 7529,
      "Ġwarten": 7530,
      "Ġwarnt": 7531,
      "Ã¤rb": 7532,
      "Ihre": 7533,
      "Uner": 7534,
      "UnglÃ¼ck": 7535,
      "UnmÃ¶glich": 7536,
      "Mitten": 7537,
      "egnet": 7538,
      "ĠschwÃ¶r": 7539,
      "Ġschwinden": 7540,
      "Ġschwitzen": 7541,
      "Ġschweig": 7542,
      "Ġschwillt": 7543,
      "Ġweihen": 7544,
      "Ġweiche": 7545,
      "Ġweitem": 7546,
      "henden": 7547,
      "Scharf": 7548,
      "Scheint": 7549,
      "SchÃ¤um": 7550,
      "ried": 7551,
      "Ġentl": 7552,
      "Ġentse": 7553,
      "Ġentsetz": 7554,
      "Ġdazw": 7555,
      "bstes": 7556,
      "Ġspu": 7557,
      "Ġspaltet": 7558,
      "Ġsprang": 7559,
      "Ġsprecht": 7560,
      "Ġsparen": 7561,
      "Ġspeisen": 7562,
      "Ġsprudelnd": 7563,
      "ĠErb": 7564,
      "ĠErn": 7565,
      "ĠErsch": 7566,
      "ĠErbar": 7567,
      "ĠErwart": 7568,
      "ĠErzÃ¤": 7569,
      "ĠErgetzen": 7570,
      "ĠErquickung": 7571,
      "ĠOfen": 7572,
      "Ġwohlver": 7573,
      "Ġwohlgetan": 7574,
      "anzig": 7575,
      "uselt": 7576,
      "Ã¤tzen": 7577,
      "liebst": 7578,
      "liehe": 7579,
      "ĠJunge": 7580,
      "ĠJÃ¤ger": 7581,
      "osse": 7582,
      "ospe": 7583,
      "otten": 7584,
      "Ġschone": 7585,
      "ĠBlum": 7586,
      "ĠBlÃ¤ttchen": 7587,
      "Dazu": 7588,
      "DafÃ¼r": 7589,
      "Ġseligen": 7590,
      "Denk": 7591,
      "zuhalten": 7592,
      "zulaufen": 7593,
      "weisen": 7594,
      "weichen": 7595,
      "weifen": 7596,
      "Ġrech": 7597,
      "Ġricht": 7598,
      "oment": 7599,
      "Ã¼nzt": 7600,
      "Ã¼nste": 7601,
      "Ã¼nkt": 7602,
      "Ġnachzu": 7603,
      "ĠÃ¼bers": 7604,
      "ĠÃ¼bermut": 7605,
      "ĠÃ¼berlaÃŁ": 7606,
      "Ġdurchw": 7607,
      "Ġdurchaus": 7608,
      "ĠgewÃ¤rt": 7609,
      "Ġgewagt": 7610,
      "ĠgewÃ¶hnlich": 7611,
      "heer": 7612,
      "gelte": 7613,
      "geladen": 7614,
      "ĠGluten": 7615,
      "ĠGlocken": 7616,
      "ĠGlÃ¶ck": 7617,
      "Ġhatten": 7618,
      "Ġechten": 7619,
      "Ã¶tzlich": 7620,
      "lÃ¼pf": 7621,
      "lÃ¼ster": 7622,
      "Ġniedr": 7623,
      "enschein": 7624,
      "ppt": 7625,
      "ĠHerrlichkeit": 7626,
      "Ġkeineswegs": 7627,
      "ĠVerein": 7628,
      "ĠVerweg": 7629,
      "ĠVerzei": 7630,
      "ĠVerrat": 7631,
      "ĠVerwir": 7632,
      "ĠVerwor": 7633,
      "ĠVerehrung": 7634,
      "ĠVersprechen": 7635,
      "abler": 7636,
      "Ġsahst": 7637,
      "fenden": 7638,
      "Ġstehe": 7639,
      "Ġhoffnung": 7640,
      "Ġhohler": 7641,
      "Ġbeizu": 7642,
      "ĠLiebl": 7643,
      "Ġleiten": 7644,
      "Ġleidig": 7645,
      "Ġkluge": 7646,
      "ĠSchwung": 7647,
      "ners": 7648,
      "Ġgenesen": 7649,
      "ĠgenoÃŁ": 7650,
      "Ġandere": 7651,
      "ĠSpan": 7652,
      "ĠSprich": 7653,
      "ĠSpitzen": 7654,
      "ĠSpitze": 7655,
      "ĠSpons": 7656,
      "ĠSprache": 7657,
      "ĠSprÃ¼che": 7658,
      "ĠPfÃ¼hl": 7659,
      "ĠPfiff": 7660,
      "ĠPfeilen": 7661,
      "ĠPfarrer": 7662,
      "iens": 7663,
      "Ġpat": 7664,
      "Ġpaar": 7665,
      "Ġpochen": 7666,
      "Ġpacken": 7667,
      "Ġplagt": 7668,
      "ĠUnt": 7669,
      "ĠUnster": 7670,
      "ĠUngest": 7671,
      "ĠUnver": 7672,
      "ĠUnrecht": 7673,
      "ĠUnschuld": 7674,
      "ĠmuÃŁte": 7675,
      "Deshalb": 7676,
      "renden": 7677,
      "Ã¼ttelt": 7678,
      "Ġwiederf": 7679,
      "Ġwiedersehn": 7680,
      "laut": 7681,
      "bare": 7682,
      "barg": 7683,
      "ĠWeiÃŁ": 7684,
      "ohnter": 7685,
      "ohnheit": 7686,
      "Ġgeschieden": 7687,
      "ĠgeschloÃŁ": 7688,
      "ĠGÃ¶tt": 7689,
      "gerst": 7690,
      "gericht": 7691,
      "Ã¤lzt": 7692,
      "Ġwerfen": 7693,
      "Ã¤ndet": 7694,
      "Ã¤ndert": 7695,
      "Ġgesetzt": 7696,
      "Ġgesinnt": 7697,
      "Ġgesellig": 7698,
      "gesehn": 7699,
      "gesetzt": 7700,
      "gesungen": 7701,
      "gespr": 7702,
      "Ġgebeut": 7703,
      "Ġgebannt": 7704,
      "Ġgebildet": 7705,
      "Ġgebietet": 7706,
      "Zuerst": 7707,
      "rÃ¤nzen": 7708,
      "rÃ¤nke": 7709,
      "Ġganzes": 7710,
      "ĠGeschrei": 7711,
      "ĠGeschehn": 7712,
      "ĠGeschÃ¶pf": 7713,
      "ĠGeschÃ¤fte": 7714,
      "Ġabgeschm": 7715,
      "Ġabsur": 7716,
      "Ġabscheu": 7717,
      "getragen": 7718,
      "getrieben": 7719,
      "ĠFluÃŁ": 7720,
      "Ġgarstigen": 7721,
      "Ġfratzen": 7722,
      "ĠGewand": 7723,
      "ĠGewÃ¼hl": 7724,
      "ĠGewebe": 7725,
      "ĠGewohnheit": 7726,
      "zean": 7727,
      "Ġreizen": 7728,
      "Ġreife": 7729,
      "Ġreizend": 7730,
      "Ġmehren": 7731,
      "samkeit": 7732,
      "Ġblank": 7733,
      "Ġblitzen": 7734,
      "Ġblinken": 7735,
      "ĠHÃ¶ll": 7736,
      "ĠHÃ¶flichkeit": 7737,
      "blasen": 7738,
      "spiegel": 7739,
      "ĠArzt": 7740,
      "selbe": 7741,
      "ÃľRME": 7742,
      "Allen": 7743,
      "glÃ¼ckt": 7744,
      "gebannt": 7745,
      "Ġgelingt": 7746,
      "Ġgelernt": 7747,
      "Ġgelegen": 7748,
      "Ġgelehrten": 7749,
      "Hierher": 7750,
      "erkraft": 7751,
      "Ġbleib": 7752,
      "Ums": 7753,
      "Umher": 7754,
      "Ġabertausend": 7755,
      "Ġersticken": 7756,
      "Ġerstaunt": 7757,
      "Ġerstarrt": 7758,
      "Ġberau": 7759,
      "ĠberÃ¼hm": 7760,
      "Ġberuhigt": 7761,
      "ĠReden": 7762,
      "Ã¤chtiger": 7763,
      "ĠSchlangen": 7764,
      "ĠSchlingen": 7765,
      "ĠSchlachten": 7766,
      "ĠSchmetter": 7767,
      "Ġverschwinden": 7768,
      "ĠMenschengeist": 7769,
      "ALIST": 7770,
      "ALIS": 7771,
      "ĠmÃ¶gt": 7772,
      "ĠhÃ¶rst": 7773,
      "ĠhÃ¶flich": 7774,
      "itzb": 7775,
      "itzten": 7776,
      "itzert": 7777,
      "Ġverlangen": 7778,
      "Ġverliert": 7779,
      "Ġschauder": 7780,
      "Ġschaudre": 7781,
      "ungene": 7782,
      "Ġgefl": 7783,
      "Ġgefragt": 7784,
      "Ġziehe": 7785,
      "THO": 7786,
      "THALIS": 7787,
      "ĠfÃ¼hlst": 7788,
      "ĠfÃ¼hlte": 7789,
      "ĠfÃ¼hlet": 7790,
      "ĠBusch": 7791,
      "ĠBuben": 7792,
      "ĠBuhlen": 7793,
      "ĠBuhle": 7794,
      "ĠGefallen": 7795,
      "chtend": 7796,
      "Ġbesitzen": 7797,
      "Ġbesiegt": 7798,
      "geschl": 7799,
      "geschrei": 7800,
      "verei": 7801,
      "Ġuntergehn": 7802,
      "Ġallerb": 7803,
      "ĠallerschÃ¶n": 7804,
      "Ġallerliebst": 7805,
      "Bewegt": 7806,
      "Ġschnop": 7807,
      "Ġgehalten": 7808,
      "StoÃŁ": 7809,
      "Ã¤hrst": 7810,
      "ĠLeier": 7811,
      "Ġjedermann": 7812,
      "fehlt": 7813,
      "ĠKluge": 7814,
      "Vorbei": 7815,
      "Entb": 7816,
      "Entgegen": 7817,
      "Ġfroher": 7818,
      "Ã¼ndchen": 7819,
      "Ã¼ndigt": 7820,
      "ĠbestÃ¤ndig": 7821,
      "GEISTER": 7822,
      "ĠBote": 7823,
      "Ġverwandelt": 7824,
      "Ġbetrat": 7825,
      "Ġbetrifft": 7826,
      "ĠbetÃ¤tigt": 7827,
      "ĠKindes": 7828,
      "Ġfeste": 7829,
      "Ġfestlich": 7830,
      "Ġfestzuhalten": 7831,
      "Ġherrlicher": 7832,
      "ĠfÃ¼hrst": 7833,
      "ĠRuhig": 7834,
      "dels": 7835,
      "Ġverbor": 7836,
      "Ġverbinden": 7837,
      "Ġverbreiten": 7838,
      "Ġverbreitet": 7839,
      "Ġverbreitend": 7840,
      "ĠAls": 7841,
      "ĠAlso": 7842,
      "Ġeures": 7843,
      "Ġdritten": 7844,
      "Ġdrunten": 7845,
      "Ġschmel": 7846,
      "ĠschmÃ¼ck": 7847,
      "Ġschmieden": 7848,
      "ĠAnge": 7849,
      "ĠAnstand": 7850,
      "ĠAnverwandten": 7851,
      "Ġerfragen": 7852,
      "Quid": 7853,
      "eime": 7854,
      "ĠgerÃ¼hrt": 7855,
      "ĠHofe": 7856,
      "ĠTheurer": 7857,
      "ĠMutterblut": 7858,
      "ĠwÃ¤hlen": 7859,
      "ĠwÃ¤hlt": 7860,
      "ĠglÃ¼ckt": 7861,
      "Ġglatten": 7862,
      "Ġfreue": 7863,
      "Ġfreuet": 7864,
      "Ġfreudig": 7865,
      "ĠBergen": 7866,
      "Ġvertragen": 7867,
      "Ġvertrieben": 7868,
      "ĠBluts": 7869,
      "ĠBlutes": 7870,
      "achend": 7871,
      "Ġbeschleun": 7872,
      "ĠBefrei": 7873,
      "ĠGebÃ¤u": 7874,
      "ĠGebirge": 7875,
      "IND": 7876,
      "INNEN": 7877,
      "haftes": 7878,
      "schloss": 7879,
      "Hatte": 7880,
      "oÃŁnen": 7881,
      "Ã¤umnis": 7882,
      "Ġleichter": 7883,
      "Heraus": 7884,
      "Herab": 7885,
      "Herauf": 7886,
      "Herbei": 7887,
      "ĠKahn": 7888,
      "ĠKammer": 7889,
      "ĠBusens": 7890,
      "Ġerschuf": 7891,
      "Ġerschlagen": 7892,
      "Ġerschrecken": 7893,
      "ĠerschÃ¼ttert": 7894,
      "ĠBrudermord": 7895,
      "ĠInbeg": 7896,
      "Ġglaubet": 7897,
      "Ġhaltet": 7898,
      "ĠkÃ¼mm": 7899,
      "ĠkÃ¼mmer": 7900,
      "Arm": 7901,
      "ĠGestein": 7902,
      "ĠFelsenw": 7903,
      "ĠQuell": 7904,
      "Ġbraunen": 7905,
      "Ġbrauche": 7906,
      "ĠHeers": 7907,
      "Ġlebend": 7908,
      "Ġgrausamen": 7909,
      "Ã¤uscht": 7910,
      "ĠReichs": 7911,
      "ĠReiches": 7912,
      "ĠIhm": 7913,
      "Ġlege": 7914,
      "Ġlebst": 7915,
      "Ġlob": 7916,
      "ĠhÃ¶chst": 7917,
      "ĠhÃ¶chster": 7918,
      "ĠFeiert": 7919,
      "Ġversetzt": 7920,
      "ĠElfen": 7921,
      "Ġbefiehlt": 7922,
      "ĠgrÃ¼ÃŁt": 7923,
      "ĠgrÃ¼ner": 7924,
      "Ġbehalten": 7925,
      "Ġewiges": 7926,
      "ĠebenbÃ¼rt": 7927,
      "ĠhÃ¤tten": 7928,
      "ĠhÃ¤ttest": 7929,
      "Ġzweie": 7930,
      "Ã¶hnte": 7931,
      "Ġstarre": 7932,
      "Ġstarrt": 7933,
      "ĠOrkus": 7934,
      "ĠOrpheus": 7935,
      "Ġwahre": 7936,
      "Ġwahres": 7937,
      "Ġwahrhaftig": 7938,
      "Ã¤ÃŁe": 7939,
      "ĠGeleite": 7940,
      "gefÃ¼hrt": 7941,
      "ĠZaudern": 7942,
      "Ġreinem": 7943,
      "Ġwelcher": 7944,
      "ĠergieÃŁ": 7945,
      "unkel": 7946,
      "ĠtausendfÃ¤lt": 7947,
      "Ġbedacht": 7948,
      "ĠWeibes": 7949,
      "ĠWeibchen": 7950,
      "Dorthin": 7951,
      "Geschrei": 7952,
      "oppeln": 7953,
      "Ġroten": 7954,
      "Ġrohe": 7955,
      "Ġrollt": 7956,
      "Ġrotes": 7957,
      "iebeln": 7958,
      "Ġwiderlich": 7959,
      "Ġwidersp": 7960,
      "ĠPhar": 7961,
      "ĠPhÃ¶bus": 7962,
      "affe": 7963,
      "Ġgoldner": 7964,
      "Ġbeladen": 7965,
      "Ġbelieb": 7966,
      "Ġferner": 7967,
      "ĠKran": 7968,
      "ĠKristall": 7969,
      "ĠSchrittes": 7970,
      "Ġvernichten": 7971,
      "Ġvernahm": 7972,
      "ĠvernÃ¼nftig": 7973,
      "ĠWirken": 7974,
      "Ġernster": 7975,
      "Ġgestehen": 7976,
      "Ġgestellt": 7977,
      "ĠgestÃ¤rkt": 7978,
      "ĠGedanke": 7979,
      "zuschlieÃŁen": 7980,
      "zuschweifen": 7981,
      "Ġraubt": 7982,
      "Ġsagte": 7983,
      "Ġeinzigen": 7984,
      "Ġeinzuf": 7985,
      "Ġlauscht": 7986,
      "ĠverstÃ¤nd": 7987,
      "Ġverstehen": 7988,
      "ĠgegenÃ¼ber": 7989,
      "ĠEhrfurcht": 7990,
      "Ġentfalten": 7991,
      "Ġentfernen": 7992,
      "Ġirre": 7993,
      "Ġfolgte": 7994,
      "Ġerheben": 7995,
      "ĠerhÃ¤lt": 7996,
      "ĠTropf": 7997,
      "ĠTromp": 7998,
      "ĠverkÃ¼nden": 7999,
      "Ġgedei": 8000,
      "ĠgedrÃ¤ngt": 8001,
      "ĠJugendkraft": 8002,
      "Ġfluch": 8003,
      "Ġflatter": 8004,
      "Ġerwacht": 8005,
      "Ġerstenmal": 8006,
      "Ġvermessen": 8007,
      "Ġempfing": 8008,
      "Ġempfunden": 8009,
      "Ġempfinden": 8010,
      "Ġleuchte": 8011,
      "mpor": 8012,
      "Ġehmals": 8013,
      "ĠHeere": 8014,
      "ĠHeeres": 8015,
      "ĠKopfe": 8016,
      "Gesp": 8017,
      "Spaz": 8018,
      "Spitzb": 8019,
      "wandt": 8020,
      "ĠBesuch": 8021,
      "ĠkrÃ¤chzt": 8022,
      "ĠentzÃ¼nden": 8023,
      "Ġherrlichsten": 8024,
      "ĠWiderst": 8025,
      "ĠWiderspruch": 8026,
      "ĠMondenschein": 8027,
      "ĠGegenkais": 8028,
      "Ġeigenen": 8029,
      "Ġenge": 8030,
      "schweben": 8031,
      "ĠFremder": 8032,
      "ĠThrone": 8033,
      "ĠThrones": 8034,
      "ĠLob": 8035,
      "ĠLoos": 8036,
      "Ġunersch": 8037,
      "ĠunerhÃ¶r": 8038,
      "ĠunerhÃ¶rt": 8039,
      "Ġjunges": 8040,
      "ĠZweige": 8041,
      "ĠrÃ¼hr": 8042,
      "Ġwehe": 8043,
      "Ã¤mon": 8044,
      "ĠLÃ¼ft": 8045,
      "ĠLÃ¼gner": 8046,
      "ĠEuren": 8047,
      "Ġthessal": 8048,
      "ĠstÃ¼rm": 8049,
      "ĠstÃ¼rzte": 8050,
      "Ġobern": 8051,
      "riebne": 8052,
      "Ġklugem": 8053,
      "GleichgÃ¼ltig": 8054,
      "Ġehrst": 8055,
      "ĠwÃ¼tend": 8056,
      "ordnen": 8057,
      "ordnet": 8058,
      "ĠStimmen": 8059,
      "ĠHimmelslicht": 8060,
      "ĠChiron": 8061,
      "wÃ¼rd": 8062,
      "enkr": 8063,
      "enker": 8064,
      "enkraft": 8065,
      "Ġwunderlich": 8066,
      "Ġwunderliche": 8067,
      "Ġbrenne": 8068,
      "Ġverfolgt": 8069,
      "Ġtrunken": 8070,
      "Versuchen": 8071,
      "liebte": 8072,
      "Ġliebende": 8073,
      "ĠliebenswÃ¼rdig": 8074,
      "Geheimnisvoll": 8075,
      "ĠGehor": 8076,
      "ĠGrieche": 8077,
      "Ġerzw": 8078,
      "ĠtrÃ¼b": 8079,
      "ĠtrÃ¼bt": 8080,
      "âĢĿ,": 8081,
      "Gebietet": 8082,
      "GefÃ¤llt": 8083,
      "ĠHoffnungs": 8084,
      "ĠkÃ¼hner": 8085,
      "BRAUNE": 8086,
      "Blut": 8087,
      "Hinweg": 8088,
      "odam": 8089,
      "Ġheutzut": 8090,
      "ĠGrillen": 8091,
      "Ġfassend": 8092,
      "ĠWerden": 8093,
      "ĠWerkzeug": 8094,
      "ĠBeginnen": 8095,
      "Ġknicken": 8096,
      "ĠknÃ¼pf": 8097,
      "revier": 8098,
      "ĠParnaÃŁ": 8099,
      "ĠUnterpf": 8100,
      "ĠUnterwelt": 8101,
      "ĠUnterird": 8102,
      "ĠGeschlechter": 8103,
      "ĠLiebeslust": 8104,
      "ummt": 8105,
      "ummen": 8106,
      "Ġharrt": 8107,
      "Ġfordern": 8108,
      "Ġforderst": 8109,
      "ĠerbÃ¤rmlich": 8110,
      "ĠTrutz": 8111,
      "ĠTorheit": 8112,
      "Ġtrink": 8113,
      "ĠAntwort": 8114,
      "Beschleun": 8115,
      "ziehen": 8116,
      "ĠhÃ¼pft": 8117,
      "ĠhÃ¼pfen": 8118,
      "Ġbraver": 8119,
      "ĠWÃ¼rden": 8120,
      "ĠWÃ¼rdig": 8121,
      "ĠWÃ¼rfel": 8122,
      "ĠSchicksals": 8123,
      "Ġmanchmal": 8124,
      "ĠGlanze": 8125,
      "Wollte": 8126,
      "Wolltest": 8127,
      "ĠGnÃ¼ge": 8128,
      "ĠGericht": 8129,
      "ĠGeruch": 8130,
      "ĠGetreuen": 8131,
      "ĠGetÃ¼mm": 8132,
      "Ġerwartet": 8133,
      "Ġinnern": 8134,
      "ĠPferden": 8135,
      "Entfernt": 8136,
      "Ġlieblichste": 8137,
      "PROKT": 8138,
      "hÃ¶hle": 8139,
      "Ġriesen": 8140,
      "Ġseltnem": 8141,
      "ĠGastes": 8142,
      "gedacht": 8143,
      "gedrÃ¤ngt": 8144,
      "ĠschÃ¤tze": 8145,
      "ĠMarkt": 8146,
      "ĠMagister": 8147,
      "ĠKrÃ¤ften": 8148,
      "ĠEimer": 8149,
      "ĠAufruhr": 8150,
      "ĠDasein": 8151,
      "Ġstreb": 8152,
      "Verbirg": 8153,
      "Verbirgt": 8154,
      "ĠzerstÃ¶rt": 8155,
      "Ġzerstreut": 8156,
      "ĠQualm": 8157,
      "ĠÃ¼bern": 8158,
      "GlÃ¼ck": 8159,
      "Vernimm": 8160,
      "Vernunft": 8161,
      "Ġpfei": 8162,
      "Ġpflegt": 8163,
      "ĠdÃ¼st": 8164,
      "Ġdrinne": 8165,
      "Ġseitdem": 8166,
      "ĠsÃ¼ÃŁer": 8167,
      "ĠgrÃ¤bt": 8168,
      "ĠSorg": 8169,
      "ĠGrÃ¼ften": 8170,
      "ĠWeber": 8171,
      "ĠWedel": 8172,
      "ĠFriedens": 8173,
      "ĠBetragen": 8174,
      "STIGE": 8175,
      "ĠgegÃ¶nnt": 8176,
      "Ġgekleidet": 8177,
      "ĠgeprÃ¤gt": 8178,
      "Ġgepriesen": 8179,
      "ĠPoesie": 8180,
      "ErfÃ¼llt": 8181,
      "Ġdeinesgleichen": 8182,
      "Ġhinweggerafft": 8183,
      "ĠSpuren": 8184,
      "Ġplumpe": 8185,
      "ĠFeindschaft": 8186,
      "erecht": 8187,
      "ĠdÃ¼rfen": 8188,
      "Ġheller": 8189,
      "Ġhellem": 8190,
      "ĠSÃ¤le": 8191
    },
    "merges": [
      [
        "c",
        "h"
      ],
      [
        "e",
        "n"
      ],
      [
        "e",
        "r"
      ],
      [
        "Ġ",
        "d"
      ],
      [
        "e",
        "i"
      ],
      [
        "Ġ",
        "s"
      ],
      [
        "i",
        "e"
      ],
      [
        "i",
        "ch"
      ],
      [
        "n",
        "d"
      ],
      [
        "s",
        "t"
      ],
      [
        "<",
        "|"
      ],
      [
        "|",
        ">"
      ],
      [
        "Ġ",
        "w"
      ],
      [
        "ei",
        "n"
      ],
      [
        "e",
        "s"
      ],
      [
        "Ġ",
        "m"
      ],
      [
        "Ġ",
        "a"
      ],
      [
        "Ã",
        "¼"
      ],
      [
        "Ġ",
        "i"
      ],
      [
        "Ġ",
        "g"
      ],
      [
        "Ġ",
        "u"
      ],
      [
        "e",
        "l"
      ],
      [
        "Ġ",
        "n"
      ],
      [
        "Ġ",
        "h"
      ],
      [
        "Ã",
        "¤"
      ],
      [
        "a",
        "s"
      ],
      [
        "Ġ",
        "S"
      ],
      [
        "a",
        "n"
      ],
      [
        "l",
        "l"
      ],
      [
        "i",
        "n"
      ],
      [
        "Ġ",
        "z"
      ],
      [
        "Ã",
        "Ł"
      ],
      [
        "Ġ",
        "v"
      ],
      [
        "i",
        "r"
      ],
      [
        "Ġ",
        "b"
      ],
      [
        "Ġ",
        "G"
      ],
      [
        "h",
        "r"
      ],
      [
        "a",
        "u"
      ],
      [
        "t",
        "e"
      ],
      [
        "g",
        "en"
      ],
      [
        "e",
        "m"
      ],
      [
        "Ã",
        "¶"
      ],
      [
        "ich",
        "t"
      ],
      [
        "Ġd",
        "ie"
      ],
      [
        "Ġu",
        "nd"
      ],
      [
        "Ġz",
        "u"
      ],
      [
        "Ġ",
        "f"
      ],
      [
        "g",
        "e"
      ],
      [
        "Ġd",
        "er"
      ],
      [
        "Ġ",
        "ich"
      ],
      [
        "t",
        "en"
      ],
      [
        "Ġ",
        "H"
      ],
      [
        "Ġs",
        "ch"
      ],
      [
        "a",
        "r"
      ],
      [
        "Ġ",
        "ein"
      ],
      [
        "o",
        "r"
      ],
      [
        "i",
        "t"
      ],
      [
        "Ġ",
        "W"
      ],
      [
        "e",
        "u"
      ],
      [
        "s",
        "ch"
      ],
      [
        "o",
        "n"
      ],
      [
        "e",
        "t"
      ],
      [
        "Ġ",
        "er"
      ],
      [
        "Ġn",
        "icht"
      ],
      [
        "Ġ",
        "l"
      ],
      [
        "Ġ",
        "F"
      ],
      [
        "Ġ",
        "B"
      ],
      [
        "c",
        "k"
      ],
      [
        "Ġ",
        "k"
      ],
      [
        "i",
        "g"
      ],
      [
        "ch",
        "t"
      ],
      [
        "m",
        "m"
      ],
      [
        "u",
        "r"
      ],
      [
        "Ġa",
        "u"
      ],
      [
        "h",
        "n"
      ],
      [
        "u",
        "n"
      ],
      [
        "Ġ",
        "M"
      ],
      [
        "U",
        "nd"
      ],
      [
        "Ġ",
        "T"
      ],
      [
        "P",
        "H"
      ],
      [
        "b",
        "en"
      ],
      [
        "t",
        "er"
      ],
      [
        "Ġ",
        "K"
      ],
      [
        "ĠS",
        "ch"
      ],
      [
        "o",
        "ch"
      ],
      [
        "Ġ",
        "L"
      ],
      [
        "Ġv",
        "er"
      ],
      [
        "S",
        "T"
      ],
      [
        "a",
        "l"
      ],
      [
        "Ġs",
        "ich"
      ],
      [
        "l",
        "ich"
      ],
      [
        "Ġi",
        "st"
      ],
      [
        "Ġg",
        "e"
      ],
      [
        "Ġd",
        "en"
      ],
      [
        "Ġu",
        "n"
      ],
      [
        "r",
        "e"
      ],
      [
        "Ġs",
        "o"
      ],
      [
        "Ġs",
        "ie"
      ],
      [
        "d",
        "er"
      ],
      [
        "Ġi",
        "n"
      ],
      [
        "Ġd",
        "as"
      ],
      [
        "Ġ",
        "E"
      ],
      [
        "a",
        "t"
      ],
      [
        "s",
        "en"
      ],
      [
        "Ġ",
        "t"
      ],
      [
        "d",
        "en"
      ],
      [
        "f",
        "t"
      ],
      [
        "r",
        "ei"
      ],
      [
        "Ġd",
        "u"
      ],
      [
        "h",
        "l"
      ],
      [
        "g",
        "t"
      ],
      [
        "D",
        "ie"
      ],
      [
        "Ġ",
        "Ġ"
      ],
      [
        "en",
        "n"
      ],
      [
        "Ġ",
        "es"
      ],
      [
        "i",
        "nd"
      ],
      [
        "Ġ",
        "R"
      ],
      [
        "Ġ",
        "A"
      ],
      [
        "er",
        "n"
      ],
      [
        "a",
        "ÃŁ"
      ],
      [
        "L",
        "E"
      ],
      [
        "ch",
        "en"
      ],
      [
        "Ġm",
        "ich"
      ],
      [
        "i",
        "er"
      ],
      [
        "Ġm",
        "ir"
      ],
      [
        "Ġw",
        "ir"
      ],
      [
        "an",
        "n"
      ],
      [
        "a",
        "nd"
      ],
      [
        "Ġa",
        "n"
      ],
      [
        "e",
        "h"
      ],
      [
        "Ġ",
        "P"
      ],
      [
        "b",
        "er"
      ],
      [
        "Ġw",
        "ie"
      ],
      [
        "Ã¼",
        "r"
      ],
      [
        "r",
        "a"
      ],
      [
        "Ġau",
        "f"
      ],
      [
        "Ġa",
        "ll"
      ],
      [
        "D",
        "er"
      ],
      [
        "l",
        "ei"
      ],
      [
        "Ġd",
        "em"
      ],
      [
        "M",
        "E"
      ],
      [
        "r",
        "o"
      ],
      [
        "Ġun",
        "s"
      ],
      [
        "Ġi",
        "hr"
      ],
      [
        "E",
        "LE"
      ],
      [
        "Ã¶",
        "n"
      ],
      [
        "'",
        "s"
      ],
      [
        "d",
        "e"
      ],
      [
        "u",
        "t"
      ],
      [
        "Ġm",
        "it"
      ],
      [
        "I",
        "ST"
      ],
      [
        "ei",
        "t"
      ],
      [
        "Ġ",
        "j"
      ],
      [
        "o",
        "l"
      ],
      [
        "I",
        "ch"
      ],
      [
        "a",
        "ch"
      ],
      [
        "Ġ",
        "D"
      ],
      [
        "O",
        "PH"
      ],
      [
        "r",
        "au"
      ],
      [
        "PH",
        "IST"
      ],
      [
        "ELE",
        "S"
      ],
      [
        "OPH",
        "ELES"
      ],
      [
        "PHIST",
        "OPHELES"
      ],
      [
        "Ġs",
        "t"
      ],
      [
        "ME",
        "PHISTOPHELES"
      ],
      [
        "r",
        "u"
      ],
      [
        "Ġ",
        "N"
      ],
      [
        "Ġ",
        "V"
      ],
      [
        "e",
        "st"
      ],
      [
        "E",
        "R"
      ],
      [
        "Ġm",
        "ein"
      ],
      [
        "D",
        "as"
      ],
      [
        "â",
        "Ģ"
      ],
      [
        "Ġ",
        "Z"
      ],
      [
        "ĠS",
        "t"
      ],
      [
        "es",
        "ch"
      ],
      [
        "i",
        "ll"
      ],
      [
        "Ġw",
        "o"
      ],
      [
        "n",
        "en"
      ],
      [
        "Ã¼",
        "ck"
      ],
      [
        "e",
        "hr"
      ],
      [
        "Ġv",
        "on"
      ],
      [
        "b",
        "t"
      ],
      [
        "A",
        "U"
      ],
      [
        "l",
        "e"
      ],
      [
        "Ġs",
        "ein"
      ],
      [
        "S",
        "o"
      ],
      [
        "E",
        "r"
      ],
      [
        "z",
        "en"
      ],
      [
        "a",
        "g"
      ],
      [
        "Ġh",
        "er"
      ],
      [
        "AU",
        "ST"
      ],
      [
        "Ġb",
        "e"
      ],
      [
        "F",
        "AUST"
      ],
      [
        "el",
        "t"
      ],
      [
        "un",
        "g"
      ],
      [
        "i",
        "gen"
      ],
      [
        "Ã¤",
        "n"
      ],
      [
        "p",
        "f"
      ],
      [
        "u",
        "ch"
      ],
      [
        "ĠH",
        "er"
      ],
      [
        "o",
        "mm"
      ],
      [
        "u",
        "m"
      ],
      [
        "ei",
        "l"
      ],
      [
        "or",
        "t"
      ],
      [
        "r",
        "eu"
      ],
      [
        "u",
        "nd"
      ],
      [
        "en",
        "d"
      ],
      [
        "Ġa",
        "l"
      ],
      [
        "b",
        "e"
      ],
      [
        "Ġd",
        "ein"
      ],
      [
        "Ġi",
        "m"
      ],
      [
        "h",
        "t"
      ],
      [
        "i",
        "sch"
      ],
      [
        "Ġd",
        "ich"
      ],
      [
        "E",
        "in"
      ],
      [
        "âĢ",
        "Ļ"
      ],
      [
        "ĠG",
        "e"
      ],
      [
        "st",
        "en"
      ],
      [
        "-",
        "-"
      ],
      [
        "Ġn",
        "ur"
      ],
      [
        "e",
        "ben"
      ],
      [
        "s",
        "e"
      ],
      [
        "Ġw",
        "as"
      ],
      [
        "Ġd",
        "ir"
      ],
      [
        "Ġu",
        "m"
      ],
      [
        "i",
        "ck"
      ],
      [
        "Ġh",
        "a"
      ],
      [
        "W",
        "ie"
      ],
      [
        "i",
        "s"
      ],
      [
        "ĠĠ",
        "ĠĠ"
      ],
      [
        "f",
        "f"
      ],
      [
        "en",
        "t"
      ],
      [
        "Ġh",
        "in"
      ],
      [
        "D",
        "och"
      ],
      [
        "z",
        "t"
      ],
      [
        "Ġd",
        "es"
      ],
      [
        "I",
        "n"
      ],
      [
        "st",
        "e"
      ],
      [
        "p",
        "h"
      ],
      [
        "Ġm",
        "an"
      ],
      [
        "i",
        "l"
      ],
      [
        "Ġd",
        "och"
      ],
      [
        "te",
        "t"
      ],
      [
        "W",
        "as"
      ],
      [
        "a",
        "m"
      ],
      [
        "n",
        "e"
      ],
      [
        "u",
        "ÃŁ"
      ],
      [
        "h",
        "m"
      ],
      [
        "i",
        "mm"
      ],
      [
        "Ġv",
        "or"
      ],
      [
        "a",
        "hr"
      ],
      [
        "o",
        "ll"
      ],
      [
        "r",
        "Ã¼"
      ],
      [
        "eu",
        "ch"
      ],
      [
        "Ġau",
        "ch"
      ],
      [
        "ur",
        "ch"
      ],
      [
        "V",
        "er"
      ],
      [
        "S",
        "ie"
      ],
      [
        "Ã¶",
        "r"
      ],
      [
        "a",
        "cht"
      ],
      [
        "el",
        "l"
      ],
      [
        "Ġau",
        "s"
      ],
      [
        "C",
        "H"
      ],
      [
        "ie",
        "l"
      ],
      [
        "r",
        "in"
      ],
      [
        "Ġw",
        "ar"
      ],
      [
        "an",
        "g"
      ],
      [
        "Ã¤",
        "r"
      ],
      [
        "I",
        "hr"
      ],
      [
        "U",
        "n"
      ],
      [
        "Ã¼",
        "ber"
      ],
      [
        "M",
        "it"
      ],
      [
        "Ġ",
        "o"
      ],
      [
        "lei",
        "ch"
      ],
      [
        "l",
        "a"
      ],
      [
        "Ġs",
        "ind"
      ],
      [
        "e",
        "g"
      ],
      [
        "Ġsch",
        "w"
      ],
      [
        "A",
        "R"
      ],
      [
        "D",
        "u"
      ],
      [
        "Ġw",
        "ei"
      ],
      [
        "h",
        "en"
      ],
      [
        "r",
        "Ã¤"
      ],
      [
        "u",
        "f"
      ],
      [
        "er",
        "t"
      ],
      [
        "S",
        "ch"
      ],
      [
        "Ġh",
        "ier"
      ],
      [
        "r",
        "ie"
      ],
      [
        "Ġ",
        "ent"
      ],
      [
        "Ġd",
        "a"
      ],
      [
        "ei",
        "st"
      ],
      [
        "n",
        "t"
      ],
      [
        "Ġi",
        "hn"
      ],
      [
        "b",
        "st"
      ],
      [
        "E",
        "s"
      ],
      [
        "i",
        "st"
      ],
      [
        "Ġs",
        "p"
      ],
      [
        "Ġdie",
        "s"
      ],
      [
        "ĠE",
        "r"
      ],
      [
        "Ġ",
        "O"
      ],
      [
        "Ġwo",
        "hl"
      ],
      [
        "an",
        "z"
      ],
      [
        "u",
        "s"
      ],
      [
        "Ã¤",
        "t"
      ],
      [
        "l",
        "ie"
      ],
      [
        "Ġ",
        "J"
      ],
      [
        "h",
        "er"
      ],
      [
        "o",
        "s"
      ],
      [
        "k",
        "t"
      ],
      [
        "O",
        "R"
      ],
      [
        "o",
        "t"
      ],
      [
        "Ġsch",
        "on"
      ],
      [
        "ĠB",
        "l"
      ],
      [
        "Ġn",
        "och"
      ],
      [
        "Ġj",
        "e"
      ],
      [
        "ÃŁ",
        "en"
      ],
      [
        "D",
        "a"
      ],
      [
        "E",
        "N"
      ],
      [
        "Ġl",
        "ie"
      ],
      [
        "Ġ",
        "euch"
      ],
      [
        "Ġs",
        "el"
      ],
      [
        "Ġso",
        "ll"
      ],
      [
        "D",
        "en"
      ],
      [
        "z",
        "u"
      ],
      [
        "Ġal",
        "s"
      ],
      [
        "w",
        "ei"
      ],
      [
        "Ġwir",
        "d"
      ],
      [
        "Ġ",
        "re"
      ],
      [
        "ÃŁ",
        "t"
      ],
      [
        "au",
        "s"
      ],
      [
        "Ġ",
        "r"
      ],
      [
        "o",
        "m"
      ],
      [
        "Ã¼",
        "n"
      ],
      [
        "Ġn",
        "ach"
      ],
      [
        "Ġzu",
        "m"
      ],
      [
        "Ġ",
        "Ã¼ber"
      ],
      [
        "Ġd",
        "urch"
      ],
      [
        "Ġge",
        "w"
      ],
      [
        "k",
        "en"
      ],
      [
        "h",
        "e"
      ],
      [
        "g",
        "el"
      ],
      [
        "Ġzu",
        "r"
      ],
      [
        "Ġw",
        "ill"
      ],
      [
        "a",
        "ll"
      ],
      [
        "Ġs",
        "ei"
      ],
      [
        "ĠG",
        "l"
      ],
      [
        "Ġi",
        "hm"
      ],
      [
        "Ġn",
        "un"
      ],
      [
        "it",
        "t"
      ],
      [
        "Ġh",
        "at"
      ],
      [
        "mm",
        "er"
      ],
      [
        "Ġ",
        "e"
      ],
      [
        "Ã¶",
        "t"
      ],
      [
        "W",
        "enn"
      ],
      [
        "Ġf",
        "Ã¼r"
      ],
      [
        "Ġk",
        "omm"
      ],
      [
        "l",
        "Ã¼"
      ],
      [
        "Ġn",
        "ie"
      ],
      [
        "e",
        "hn"
      ],
      [
        "en",
        "sch"
      ],
      [
        "i",
        "ge"
      ],
      [
        "p",
        "p"
      ],
      [
        "W",
        "ir"
      ],
      [
        "el",
        "n"
      ],
      [
        "V",
        "on"
      ],
      [
        "u",
        "g"
      ],
      [
        "Ã¼",
        "hl"
      ],
      [
        "Ġsch",
        "Ã¶n"
      ],
      [
        "ĠHer",
        "r"
      ],
      [
        "I",
        "ph"
      ],
      [
        "Iph",
        "igen"
      ],
      [
        "Ġd",
        "aÃŁ"
      ],
      [
        "Ġk",
        "ein"
      ],
      [
        "ĠV",
        "er"
      ],
      [
        "Ġsel",
        "bst"
      ],
      [
        "a",
        "b"
      ],
      [
        "Ġ",
        "("
      ],
      [
        "Ġs",
        "a"
      ],
      [
        "Iphigen",
        "ie"
      ],
      [
        "ĠL",
        "eben"
      ],
      [
        "ĠA",
        "u"
      ],
      [
        "h",
        "eit"
      ],
      [
        "I",
        "st"
      ],
      [
        "ch",
        "e"
      ],
      [
        "in",
        "g"
      ],
      [
        "al",
        "t"
      ],
      [
        "f",
        "en"
      ],
      [
        "Ã¼",
        "hr"
      ],
      [
        "Ġs",
        "te"
      ],
      [
        "Ġh",
        "o"
      ],
      [
        "ĠM",
        "ann"
      ],
      [
        "d",
        "es"
      ],
      [
        "Ġb",
        "ei"
      ],
      [
        "ĠG",
        "eist"
      ],
      [
        "ĠL",
        "ie"
      ],
      [
        "in",
        "n"
      ],
      [
        "Ġl",
        "ei"
      ],
      [
        ")",
        "."
      ],
      [
        "Ġk",
        "l"
      ],
      [
        "ch",
        "te"
      ],
      [
        "Ġw",
        "enn"
      ],
      [
        "Ġg",
        "ro"
      ],
      [
        "W",
        "o"
      ],
      [
        "ĠSch",
        "w"
      ],
      [
        "n",
        "er"
      ],
      [
        "Ġk",
        "ann"
      ],
      [
        "m",
        "al"
      ],
      [
        "Ġg",
        "en"
      ],
      [
        "A",
        "l"
      ],
      [
        "Ġa",
        "nd"
      ],
      [
        "ĠS",
        "p"
      ],
      [
        "ĠP",
        "f"
      ],
      [
        "i",
        "en"
      ],
      [
        "u",
        "l"
      ],
      [
        "M",
        "AR"
      ],
      [
        "Ġ",
        "p"
      ],
      [
        "Ġ",
        "Un"
      ],
      [
        "Ġg",
        "leich"
      ],
      [
        "Ġb",
        "in"
      ],
      [
        "a",
        "ft"
      ],
      [
        "st",
        "er"
      ],
      [
        "Ġm",
        "uÃŁ"
      ],
      [
        "ter",
        "n"
      ],
      [
        ".",
        ")"
      ],
      [
        "Ġa",
        "m"
      ],
      [
        "Ġein",
        "e"
      ],
      [
        "Ã¶n",
        "ig"
      ],
      [
        "D",
        "es"
      ],
      [
        "r",
        "en"
      ],
      [
        "er",
        "s"
      ],
      [
        "Ã¼",
        "t"
      ],
      [
        "et",
        "zt"
      ],
      [
        "Ġden",
        "n"
      ],
      [
        "Ġwie",
        "der"
      ],
      [
        "D",
        "aÃŁ"
      ],
      [
        "l",
        "au"
      ],
      [
        "b",
        "ar"
      ],
      [
        "T",
        "E"
      ],
      [
        "Ġv",
        "iel"
      ],
      [
        "ĠW",
        "ei"
      ],
      [
        "o",
        "hn"
      ],
      [
        "Al",
        "s"
      ],
      [
        "Ġg",
        "esch"
      ],
      [
        "ĠG",
        "Ã¶t"
      ],
      [
        "ĠF",
        "reu"
      ],
      [
        "g",
        "er"
      ],
      [
        "r",
        "itt"
      ],
      [
        "Ġs",
        "eh"
      ],
      [
        "Ã¤",
        "l"
      ],
      [
        "ĠK",
        "Ã¶nig"
      ],
      [
        "D",
        "enn"
      ],
      [
        "Ġw",
        "er"
      ],
      [
        "Ã¤",
        "nd"
      ],
      [
        "ĠM",
        "ensch"
      ],
      [
        "ĠĠĠĠ",
        "ĠĠĠĠ"
      ],
      [
        "W",
        "er"
      ],
      [
        "Ġg",
        "es"
      ],
      [
        "ĠW",
        "elt"
      ],
      [
        "ĠB",
        "ru"
      ],
      [
        "N",
        "un"
      ],
      [
        "g",
        "es"
      ],
      [
        "ĠG",
        "es"
      ],
      [
        "Ġge",
        "b"
      ],
      [
        "Ġall",
        "es"
      ],
      [
        "Z",
        "u"
      ],
      [
        "d",
        "ig"
      ],
      [
        "D",
        "em"
      ],
      [
        "N",
        "icht"
      ],
      [
        "e",
        "er"
      ],
      [
        "k",
        "e"
      ],
      [
        "r",
        "Ã¤n"
      ],
      [
        "u",
        "st"
      ],
      [
        "w",
        "ar"
      ],
      [
        "Ġg",
        "anz"
      ],
      [
        "m",
        "en"
      ],
      [
        "Ġ",
        "Ihr"
      ],
      [
        "Ġi",
        "mmer"
      ],
      [
        "Ġnicht",
        "s"
      ],
      [
        "f",
        "el"
      ],
      [
        "A",
        "uf"
      ],
      [
        "Ġn",
        "eu"
      ],
      [
        "ĠG",
        "esch"
      ],
      [
        "Ġein",
        "en"
      ],
      [
        "ĠE",
        "uch"
      ],
      [
        "an",
        "gen"
      ],
      [
        "et",
        "z"
      ],
      [
        "ck",
        "t"
      ],
      [
        "Ġa",
        "b"
      ],
      [
        "ĠS",
        "e"
      ],
      [
        "G",
        "e"
      ],
      [
        "ie",
        "f"
      ],
      [
        "el",
        "le"
      ],
      [
        "ge",
        "t"
      ],
      [
        "ĠF",
        "l"
      ],
      [
        "al",
        "d"
      ],
      [
        "I",
        "m"
      ],
      [
        "U",
        "S"
      ],
      [
        "Ġall",
        "e"
      ],
      [
        "ol",
        "d"
      ],
      [
        "ff",
        "en"
      ],
      [
        "Ġg",
        "ar"
      ],
      [
        "au",
        "m"
      ],
      [
        "Ġf",
        "r"
      ],
      [
        "aÃŁ",
        "t"
      ],
      [
        "ĠGe",
        "w"
      ],
      [
        "s",
        "er"
      ],
      [
        "ck",
        "en"
      ],
      [
        "ot",
        "t"
      ],
      [
        "a",
        "mm"
      ],
      [
        "z",
        "e"
      ],
      [
        "Ġ",
        "rei"
      ],
      [
        "Ġv",
        "oll"
      ],
      [
        "Ġv",
        "om"
      ],
      [
        "ĠT",
[...]
